extern "C" const unsigned char modelWeights[] = {
0x20, 0x00, 0x00, 0x00, 0x54, 0x46, 0x4c, 0x33, 0x00, 0x00, 0x00, 0x00, 
0x14, 0x00, 0x20, 0x00, 0x1c, 0x00, 0x18, 0x00, 0x14, 0x00, 0x10, 0x00, 
0x0c, 0x00, 0x00, 0x00, 0x08, 0x00, 0x04, 0x00, 0x14, 0x00, 0x00, 0x00, 
0x1c, 0x00, 0x00, 0x00, 0x8c, 0x00, 0x00, 0x00, 0x0c, 0x01, 0x00, 0x00, 
0x98, 0x1a, 0x00, 0x00, 0xa8, 0x1a, 0x00, 0x00, 0x14, 0x2d, 0x00, 0x00, 
0x03, 0x00, 0x00, 0x00, 0x01, 0x00, 0x00, 0x00, 0x04, 0x00, 0x00, 0x00, 
0x0e, 0xe5, 0xff, 0xff, 0x0c, 0x00, 0x00, 0x00, 0x1c, 0x00, 0x00, 0x00, 
0x3c, 0x00, 0x00, 0x00, 0x0f, 0x00, 0x00, 0x00, 0x73, 0x65, 0x72, 0x76, 
0x69, 0x6e, 0x67, 0x5f, 0x64, 0x65, 0x66, 0x61, 0x75, 0x6c, 0x74, 0x00, 
0x01, 0x00, 0x00, 0x00, 0x04, 0x00, 0x00, 0x00, 0x68, 0xff, 0xff, 0xff, 
0x10, 0x00, 0x00, 0x00, 0x04, 0x00, 0x00, 0x00, 0x08, 0x00, 0x00, 0x00, 
0x6f, 0x75, 0x74, 0x70, 0x75, 0x74, 0x5f, 0x30, 0x00, 0x00, 0x00, 0x00, 
0x01, 0x00, 0x00, 0x00, 0x04, 0x00, 0x00, 0x00, 0xf2, 0xe5, 0xff, 0xff, 
0x04, 0x00, 0x00, 0x00, 0x0c, 0x00, 0x00, 0x00, 0x6b, 0x65, 0x72, 0x61, 
0x73, 0x5f, 0x74, 0x65, 0x6e, 0x73, 0x6f, 0x72, 0x00, 0x00, 0x00, 0x00, 
0x03, 0x00, 0x00, 0x00, 0x5c, 0x00, 0x00, 0x00, 0x2c, 0x00, 0x00, 0x00, 
0x04, 0x00, 0x00, 0x00, 0xb8, 0xff, 0xff, 0xff, 0x14, 0x00, 0x00, 0x00, 
0x04, 0x00, 0x00, 0x00, 0x13, 0x00, 0x00, 0x00, 0x43, 0x4f, 0x4e, 0x56, 
0x45, 0x52, 0x53, 0x49, 0x4f, 0x4e, 0x5f, 0x4d, 0x45, 0x54, 0x41, 0x44, 
0x41, 0x54, 0x41, 0x00, 0xdc, 0xff, 0xff, 0xff, 0x13, 0x00, 0x00, 0x00, 
0x04, 0x00, 0x00, 0x00, 0x13, 0x00, 0x00, 0x00, 0x6d, 0x69, 0x6e, 0x5f, 
0x72, 0x75, 0x6e, 0x74, 0x69, 0x6d, 0x65, 0x5f, 0x76, 0x65, 0x72, 0x73, 
0x69, 0x6f, 0x6e, 0x00, 0x08, 0x00, 0x0c, 0x00, 0x08, 0x00, 0x04, 0x00, 
0x08, 0x00, 0x00, 0x00, 0x12, 0x00, 0x00, 0x00, 0x04, 0x00, 0x00, 0x00, 
0x13, 0x00, 0x00, 0x00, 0x6d, 0x69, 0x6e, 0x5f, 0x72, 0x75, 0x6e, 0x74, 
0x69, 0x6d, 0x65, 0x5f, 0x76, 0x65, 0x72, 0x73, 0x69, 0x6f, 0x6e, 0x00, 
0x15, 0x00, 0x00, 0x00, 0x88, 0x19, 0x00, 0x00, 0x80, 0x19, 0x00, 0x00, 
0x68, 0x19, 0x00, 0x00, 0x4c, 0x19, 0x00, 0x00, 0x1c, 0x19, 0x00, 0x00, 
0x8c, 0x18, 0x00, 0x00, 0x7c, 0x14, 0x00, 0x00, 0xec, 0x13, 0x00, 0x00, 
0xdc, 0x01, 0x00, 0x00, 0x8c, 0x01, 0x00, 0x00, 0xec, 0x00, 0x00, 0x00, 
0xe4, 0x00, 0x00, 0x00, 0xdc, 0x00, 0x00, 0x00, 0xd4, 0x00, 0x00, 0x00, 
0xcc, 0x00, 0x00, 0x00, 0xc4, 0x00, 0x00, 0x00, 0xbc, 0x00, 0x00, 0x00, 
0xb4, 0x00, 0x00, 0x00, 0x94, 0x00, 0x00, 0x00, 0x74, 0x00, 0x00, 0x00, 
0x04, 0x00, 0x00, 0x00, 0xea, 0xe6, 0xff, 0xff, 0x04, 0x00, 0x00, 0x00, 
0x60, 0x00, 0x00, 0x00, 0x0c, 0x00, 0x00, 0x00, 0x08, 0x00, 0x0e, 0x00, 
0x08, 0x00, 0x04, 0x00, 0x08, 0x00, 0x00, 0x00, 0x10, 0x00, 0x00, 0x00, 
0x28, 0x00, 0x00, 0x00, 0x00, 0x00, 0x06, 0x00, 0x08, 0x00, 0x04, 0x00, 
0x06, 0x00, 0x00, 0x00, 0x04, 0x00, 0x00, 0x00, 0x01, 0x00, 0x00, 0x00, 
0xeb, 0x03, 0x00, 0x00, 0x0c, 0x00, 0x18, 0x00, 0x14, 0x00, 0x10, 0x00, 
0x0c, 0x00, 0x04, 0x00, 0x0c, 0x00, 0x00, 0x00, 0xbc, 0xe0, 0x30, 0xfb, 
0xa1, 0x64, 0x98, 0x2e, 0x02, 0x00, 0x00, 0x00, 0x02, 0x00, 0x00, 0x00, 
0x04, 0x00, 0x00, 0x00, 0x06, 0x00, 0x00, 0x00, 0x32, 0x2e, 0x31, 0x39, 
0x2e, 0x30, 0x00, 0x00, 0x56, 0xe7, 0xff, 0xff, 0x04, 0x00, 0x00, 0x00, 
0x10, 0x00, 0x00, 0x00, 0x00, 0x00, 0x00, 0x00, 0x00, 0x00, 0x00, 0x00, 
0x00, 0x00, 0x00, 0x00, 0x00, 0x00, 0x00, 0x00, 0x72, 0xe7, 0xff, 0xff, 
0x04, 0x00, 0x00, 0x00, 0x10, 0x00, 0x00, 0x00, 0x31, 0x2e, 0x31, 0x34, 
0x2e, 0x30, 0x00, 0x00, 0x00, 0x00, 0x00, 0x00, 0x00, 0x00, 0x00, 0x00, 
0xc0, 0xd5, 0xff, 0xff, 0xc4, 0xd5, 0xff, 0xff, 0xc8, 0xd5, 0xff, 0xff, 
0xcc, 0xd5, 0xff, 0xff, 0xd0, 0xd5, 0xff, 0xff, 0xd4, 0xd5, 0xff, 0xff, 
0xd8, 0xd5, 0xff, 0xff, 0xaa, 0xe7, 0xff, 0xff, 0x04, 0x00, 0x00, 0x00, 
0x90, 0x00, 0x00, 0x00, 0x15, 0x8f, 0xa5, 0x92, 0xb5, 0xaf, 0xb5, 0x9e, 
0x81, 0x2d, 0x24, 0xc9, 0x4c, 0x7d, 0x92, 0x36, 0x2b, 0x81, 0xd0, 0xb7, 
0x24, 0xc1, 0x91, 0xed, 0x81, 0xb0, 0x37, 0xcb, 0x6d, 0xda, 0xa7, 0x3c, 
0x24, 0x7f, 0x29, 0x68, 0xad, 0x2e, 0x35, 0x81, 0x0c, 0x6e, 0x01, 0x49, 
0xda, 0x87, 0x36, 0x7f, 0x47, 0xdc, 0x60, 0x92, 0xaa, 0x55, 0xed, 0x0e, 
0x2d, 0x8d, 0xc9, 0x69, 0xcc, 0xa9, 0x7f, 0x4c, 0x71, 0xed, 0x8b, 0x9e, 
0x5d, 0x65, 0xbd, 0x81, 0x61, 0x4a, 0x6e, 0xdd, 0x9e, 0x3d, 0x81, 0xe6, 
0x1d, 0x27, 0x1f, 0x05, 0x6a, 0x63, 0x7f, 0xfc, 0x40, 0x63, 0xe8, 0x84, 
0x98, 0x81, 0x8f, 0xea, 0xa6, 0xbe, 0xbb, 0xe6, 0x57, 0x68, 0x19, 0xe8, 
0x7a, 0x81, 0x0e, 0xbf, 0x50, 0xdd, 0xc0, 0x3d, 0x12, 0xaa, 0x7f, 0x1d, 
0xaf, 0x9c, 0x8d, 0xfc, 0x81, 0xc1, 0x50, 0xfc, 0xfd, 0x4b, 0x42, 0x33, 
0x58, 0x6e, 0x30, 0xb3, 0xd3, 0xcf, 0x81, 0xc8, 0x9d, 0xca, 0x82, 0x81, 
0x91, 0xd8, 0xa3, 0x8d, 0x46, 0xe8, 0xff, 0xff, 0x04, 0x00, 0x00, 0x00, 
0x40, 0x00, 0x00, 0x00, 0xe4, 0x1e, 0x00, 0x00, 0xb1, 0xb7, 0xff, 0xff, 
0xc0, 0x0d, 0x00, 0x00, 0x01, 0x8c, 0xff, 0xff, 0x70, 0xd2, 0xff, 0xff, 
0x1e, 0xb5, 0xff, 0xff, 0xd8, 0x08, 0x00, 0x00, 0x97, 0xb0, 0xff, 0xff, 
0xa8, 0xc9, 0xff, 0xff, 0x6e, 0xa5, 0xff, 0xff, 0xba, 0x1f, 0x00, 0x00, 
0x98, 0xab, 0xff, 0xff, 0x8a, 0xd3, 0xff, 0xff, 0xe5, 0x39, 0x00, 0x00, 
0x4d, 0xe3, 0xff, 0xff, 0x0a, 0x23, 0x00, 0x00, 0x92, 0xe8, 0xff, 0xff, 
0x04, 0x00, 0x00, 0x00, 0x00, 0x12, 0x00, 0x00, 0x5c, 0x71, 0x41, 0x12, 
0x29, 0x28, 0x16, 0x21, 0x04, 0x23, 0x3e, 0x29, 0x76, 0x05, 0x27, 0x46, 
0x4f, 0x29, 0x66, 0xf8, 0x19, 0xdb, 0x05, 0x07, 0xe1, 0xed, 0x5e, 0x08, 
0x6c, 0xf2, 0x1d, 0x5b, 0x3a, 0xfe, 0x78, 0xef, 0xfb, 0xfb, 0x25, 0x11, 
0xe9, 0xf0, 0x49, 0xe6, 0x1a, 0xcb, 0x01, 0x5d, 0x44, 0x5f, 0x65, 0x0f, 
0x0e, 0x29, 0x1b, 0x3a, 0x1a, 0x20, 0x51, 0x0f, 0x7d, 0xe0, 0x1b, 0x67, 
0x3b, 0x4b, 0x55, 0x08, 0x05, 0xe3, 0xec, 0x1f, 0xe9, 0x14, 0x52, 0xe2, 
0x36, 0xc6, 0x36, 0x6b, 0x4d, 0x1a, 0x7f, 0xf9, 0x1f, 0xf7, 0x04, 0xff, 
0xe6, 0xdf, 0x42, 0xd4, 0x2a, 0xf6, 0x05, 0x70, 0x4c, 0x68, 0x4c, 0x0d, 
0x19, 0x26, 0x3c, 0x32, 0x25, 0x11, 0x48, 0x06, 0x74, 0xfa, 0x30, 0x6e, 
0x41, 0x1a, 0x72, 0xfd, 0x08, 0xf6, 0x09, 0x10, 0x01, 0x0a, 0x58, 0xe4, 
0x35, 0xfe, 0x0a, 0x6c, 0x52, 0x0b, 0x55, 0xe9, 0x0a, 0xf9, 0x0c, 0xf4, 
0xe5, 0xf1, 0x6f, 0xe0, 0x3e, 0xfe, 0xf6, 0x52, 0xc3, 0xa4, 0xc4, 0x17, 
0xf2, 0xe6, 0xb8, 0x11, 0xf5, 0x31, 0x00, 0x16, 0x9f, 0xfe, 0x05, 0xdb, 
0x00, 0x9e, 0xca, 0x25, 0x14, 0xf4, 0xdb, 0xf0, 0xeb, 0x2b, 0x0c, 0x25, 
0xa7, 0xfd, 0xf2, 0xde, 0x08, 0xd2, 0xdf, 0xf7, 0x04, 0xd6, 0xb3, 0x0d, 
0xfc, 0x36, 0xd6, 0x1c, 0xc0, 0x0d, 0xe4, 0xec, 0xfd, 0x99, 0xc6, 0x23, 
0xdd, 0xee, 0xb6, 0xea, 0xf1, 0x26, 0xe7, 0x2b, 0xb9, 0x17, 0xe4, 0xfc, 
0x0c, 0xb8, 0xdc, 0xf8, 0x15, 0xe0, 0xbd, 0xeb, 0xf6, 0x1f, 0x02, 0x28, 
0xcc, 0x0c, 0xf2, 0xe7, 0xf4, 0xd2, 0xc7, 0x30, 0x00, 0xf5, 0xb1, 0x01, 
0xed, 0x2b, 0xe9, 0x25, 0xad, 0x25, 0xf0, 0xfe, 0xd6, 0xa8, 0xac, 0x34, 
0xd7, 0xce, 0xd3, 0xf0, 0xdb, 0x19, 0xe0, 0x2a, 0x81, 0xfe, 0xea, 0xe0, 
0xed, 0xc8, 0xbe, 0x35, 0xde, 0xda, 0xed, 0xf0, 0xd8, 0x32, 0xe4, 0x21, 
0xc1, 0x12, 0x1d, 0xe0, 0xe9, 0x9d, 0xbf, 0xfb, 0xd2, 0xfe, 0xc1, 0xe7, 
0xdf, 0x05, 0xea, 0x08, 0xa5, 0x3b, 0xf3, 0xcd, 0xc5, 0xb8, 0x12, 0xea, 
0xa0, 0xe5, 0xbf, 0xbc, 0x09, 0x94, 0xe8, 0x67, 0xaf, 0x01, 0x23, 0xfa, 
0x22, 0x4f, 0x43, 0xe8, 0x66, 0xae, 0xc3, 0x58, 0x47, 0x9b, 0x05, 0xb8, 
0x90, 0xdc, 0xbd, 0xfd, 0xea, 0xad, 0x29, 0x37, 0xdc, 0xf2, 0x81, 0xf0, 
0xca, 0x3e, 0x1e, 0x4c, 0x13, 0x16, 0xd3, 0xfb, 0x1c, 0xf7, 0x1f, 0xc2, 
0xd2, 0x8b, 0xd7, 0xba, 0x2c, 0xdd, 0xc2, 0x18, 0x29, 0x06, 0x4d, 0xa3, 
0xe1, 0xf7, 0xa4, 0xdd, 0xdf, 0x21, 0x00, 0xc6, 0xb9, 0x43, 0x2b, 0x90, 
0x64, 0xae, 0x14, 0xe6, 0x0a, 0x01, 0x5a, 0xac, 0x2f, 0xa6, 0x36, 0xa1, 
0x8f, 0x3e, 0xa7, 0xca, 0xb3, 0xc3, 0xc8, 0xf9, 0x14, 0xbc, 0x56, 0xa6, 
0x04, 0xa3, 0xd9, 0x24, 0xb5, 0xf6, 0xa5, 0x41, 0xf0, 0xd2, 0x0d, 0x6c, 
0xa1, 0x15, 0xf4, 0x36, 0x2b, 0x36, 0x0b, 0x2b, 0x8f, 0xbe, 0xe9, 0xa4, 
0x4e, 0xc2, 0x29, 0x5a, 0x26, 0xaa, 0x4b, 0x36, 0xdd, 0xe9, 0xba, 0xb6, 
0x4e, 0x8a, 0xde, 0xeb, 0xe7, 0xa3, 0x8d, 0x2d, 0x36, 0x3c, 0x71, 0xf7, 
0x2b, 0x16, 0x25, 0xff, 0x1c, 0xf9, 0x52, 0x17, 0x4a, 0xe4, 0x04, 0x68, 
0x3f, 0x2d, 0x56, 0xfb, 0x61, 0x31, 0x38, 0x0d, 0x21, 0x22, 0x3b, 0xf2, 
0x3f, 0x24, 0xe9, 0x6c, 0x60, 0x4d, 0x72, 0x0e, 0x38, 0x1c, 0x1b, 0x08, 
0x04, 0x18, 0x63, 0x03, 0x35, 0xd1, 0xf6, 0x68, 0x35, 0x56, 0x54, 0x06, 
0x40, 0x32, 0x19, 0xff, 0x0d, 0x18, 0x58, 0xe9, 0x64, 0xf5, 0xf9, 0x6c, 
0x4f, 0x41, 0x54, 0xf2, 0x3c, 0x29, 0x57, 0xe7, 0x09, 0xf3, 0x41, 0x27, 
0x22, 0x06, 0x18, 0x66, 0x51, 0x4e, 0x5b, 0xf9, 0x36, 0x1f, 0x0b, 0x12, 
0x0e, 0xf9, 0x3f, 0x0b, 0x63, 0xfc, 0x06, 0x5a, 0x4b, 0x54, 0x60, 0x16, 
0x14, 0x00, 0x3d, 0xe7, 0x0f, 0x0e, 0x67, 0x0f, 0x47, 0x11, 0xfd, 0x6a, 
0x4a, 0x1d, 0x5c, 0xf8, 0x52, 0x06, 0x58, 0x16, 0x31, 0x12, 0x4b, 0x1e, 
0x45, 0x1f, 0x0a, 0x70, 0x35, 0x47, 0x6b, 0xf6, 0x2e, 0xf8, 0x0b, 0xff, 
0xf2, 0xee, 0x70, 0xf7, 0x6c, 0x0c, 0x0b, 0x7f, 0x57, 0x2f, 0x66, 0xf4, 
0x2f, 0x19, 0x52, 0x1e, 0x14, 0x19, 0x31, 0x1d, 0x62, 0x1a, 0x2b, 0x4d, 
0x4c, 0x52, 0x3f, 0x01, 0x30, 0x0f, 0x53, 0xec, 0x31, 0xed, 0x26, 0xf4, 
0x67, 0x1f, 0x24, 0x54, 0x5b, 0x44, 0x5a, 0xeb, 0x2d, 0x07, 0x53, 0xe7, 
0x0d, 0x12, 0x47, 0x04, 0x46, 0x15, 0x1f, 0x4d, 0x5a, 0x2e, 0x5b, 0x18, 
0x20, 0x32, 0x33, 0x1b, 0xff, 0xfe, 0x53, 0x06, 0x5a, 0x16, 0x27, 0x76, 
0x54, 0x41, 0x57, 0x04, 0x2e, 0x19, 0x30, 0x00, 0x2a, 0x08, 0x4a, 0x23, 
0x6c, 0x27, 0x11, 0x4e, 0x4b, 0x4c, 0x4e, 0x11, 0x4a, 0x08, 0x53, 0xe9, 
0x1a, 0xfd, 0x54, 0xf1, 0x6d, 0x33, 0x1e, 0x4b, 0x62, 0x3e, 0x54, 0x21, 
0x19, 0x3b, 0x2e, 0x02, 0x10, 0x02, 0x7f, 0x27, 0x5e, 0x16, 0x14, 0x71, 
0x38, 0x4d, 0x4f, 0x1a, 0x1f, 0x0f, 0x2b, 0x1e, 0x02, 0x06, 0x77, 0xfd, 
0x6f, 0x01, 0xfe, 0x6b, 0x58, 0x34, 0x6c, 0xf6, 0x3f, 0x2e, 0x3d, 0xfc, 
0xfe, 0x17, 0x63, 0xf9, 0x68, 0x0b, 0xf7, 0x5c, 0xd7, 0xec, 0xd6, 0x06, 
0xd2, 0xf4, 0x5e, 0xdb, 0x4a, 0xc4, 0xb7, 0x21, 0x49, 0x4c, 0x13, 0x90, 
0xd4, 0x08, 0xb0, 0xf6, 0xcd, 0xf8, 0x44, 0x19, 0x2a, 0xf5, 0xc5, 0x00, 
0x13, 0x68, 0x25, 0x97, 0xbf, 0x22, 0xba, 0xc5, 0x31, 0x04, 0x50, 0x0b, 
0x2d, 0xe1, 0xde, 0x25, 0x57, 0x7f, 0x57, 0xcb, 0xd3, 0xea, 0xe5, 0x0e, 
0xe4, 0xd5, 0x6c, 0xe1, 0xf7, 0x01, 0xcc, 0xcc, 0x41, 0x58, 0x16, 0xaf, 
0xed, 0xeb, 0xe3, 0xf1, 0xfa, 0xf8, 0x42, 0xf6, 0x01, 0xdb, 0xbe, 0xdf, 
0x43, 0x55, 0x11, 0xc0, 0xbe, 0x1d, 0xbe, 0xc4, 0x1f, 0x00, 0x53, 0x1a, 
0xf7, 0xd9, 0xb3, 0xcf, 0x2a, 0x5e, 0x2e, 0xc9, 0xad, 0xef, 0xb4, 0xe6, 
0xef, 0xea, 0x57, 0x11, 0xff, 0xef, 0xaa, 0xcb, 0x3f, 0x6c, 0x2b, 0x99, 
0xdb, 0xe1, 0xc1, 0xf2, 0xe8, 0xdb, 0x53, 0x17, 0xe8, 0xc9, 0xac, 0xc8, 
0x2d, 0x42, 0xeb, 0x9a, 0xd7, 0xea, 0x9a, 0xc4, 0xf9, 0xf1, 0x2d, 0xff, 
0xee, 0xc3, 0x96, 0xf2, 0x25, 0x72, 0x25, 0xbf, 0x38, 0x42, 0x66, 0xee, 
0x43, 0x22, 0x3b, 0x05, 0x18, 0x0b, 0x4b, 0xf8, 0x63, 0xfb, 0xec, 0x78, 
0x42, 0x18, 0x5f, 0xed, 0x0c, 0x0d, 0x14, 0xe6, 0x1c, 0x18, 0x5c, 0x07, 
0x4e, 0xfd, 0x0a, 0x64, 0x4b, 0x1f, 0x7f, 0xfe, 0x02, 0xf8, 0x08, 0x0c, 
0xe9, 0xe7, 0x4c, 0x00, 0x52, 0xe1, 0x06, 0x5a, 0x4d, 0x3d, 0x46, 0x0c, 
0x31, 0x0d, 0x1f, 0xf9, 0xf7, 0x18, 0x4d, 0x1a, 0x6e, 0xf8, 0x0f, 0x70, 
0x3b, 0x10, 0x5a, 0xec, 0x29, 0x1f, 0x2e, 0x01, 0x21, 0x00, 0x2d, 0x16, 
0x2a, 0x08, 0x0c, 0x50, 0x61, 0x2d, 0x76, 0x02, 0x21, 0xe8, 0x00, 0x05, 
0xf6, 0x12, 0x39, 0x03, 0x41, 0x03, 0xed, 0x6b, 0x3e, 0x27, 0x47, 0x15, 
0x20, 0x12, 0x29, 0x08, 0x10, 0x0c, 0x4d, 0x0f, 0x5f, 0xf8, 0x10, 0x4e, 
0x56, 0x1d, 0x48, 0x09, 0x33, 0x0f, 0x2f, 0xf1, 0x1d, 0x0f, 0x68, 0x0d, 
0x2b, 0x16, 0xf6, 0x72, 0x3a, 0x22, 0x6c, 0xe9, 0x21, 0xfb, 0x0e, 0xf0, 
0xe2, 0xeb, 0x6d, 0x09, 0x4d, 0xdd, 0xf3, 0x54, 0x31, 0x15, 0x28, 0x11, 
0x1d, 0x2f, 0x49, 0xb3, 0xf2, 0x9a, 0x28, 0x38, 0x98, 0x4a, 0xa8, 0xec, 
0x02, 0xc8, 0xe0, 0x0d, 0xca, 0x9d, 0xc8, 0x4e, 0xa5, 0x16, 0x09, 0xcf, 
0x01, 0x1c, 0xf8, 0xcb, 0xb2, 0x33, 0xc4, 0xe1, 0xe1, 0x13, 0x5b, 0xe5, 
0xee, 0xd4, 0x39, 0xb7, 0xf3, 0x14, 0x1d, 0xd7, 0xdf, 0x03, 0xd0, 0x05, 
0x49, 0xd9, 0xc4, 0xa1, 0x0b, 0xf7, 0xbc, 0x11, 0xef, 0x44, 0xc2, 0x29, 
0xa5, 0x92, 0xea, 0x9a, 0xc1, 0x9b, 0xe1, 0x47, 0x88, 0x97, 0xf7, 0x2b, 
0x13, 0xa5, 0x9d, 0xed, 0x51, 0xab, 0xbb, 0x2e, 0xee, 0x81, 0xe1, 0xda, 
0x0b, 0xef, 0x29, 0x32, 0xd7, 0xa0, 0x0b, 0x01, 0x50, 0xca, 0x45, 0xef, 
0x00, 0x01, 0x61, 0xf6, 0xca, 0xe5, 0x53, 0xf6, 0x74, 0x61, 0x21, 0x18, 
0x2e, 0xe5, 0xc2, 0xb9, 0x06, 0x35, 0x09, 0xf8, 0x9e, 0x37, 0xe8, 0xa2, 
0x00, 0xb3, 0xf9, 0x00, 0x14, 0x12, 0xb2, 0xdb, 0xd2, 0x8d, 0x3e, 0xff, 
0x9e, 0x8d, 0x04, 0xf3, 0xa9, 0xb7, 0x2b, 0xc1, 0xb1, 0x53, 0xb0, 0xed, 
0xfc, 0x5d, 0x1a, 0x42, 0x61, 0x04, 0xcd, 0x4a, 0x15, 0x50, 0x7f, 0xb6, 
0xdb, 0x3c, 0xdd, 0xf3, 0xee, 0x3e, 0x1e, 0x1f, 0x6a, 0xf5, 0xdf, 0x41, 
0x0e, 0x53, 0x7c, 0xbb, 0xda, 0x3b, 0xe0, 0xec, 0x22, 0x4c, 0x17, 0x39, 
0x78, 0x09, 0xde, 0x58, 0x1c, 0x5c, 0x79, 0xc5, 0xb9, 0x0e, 0xbc, 0xd1, 
0xc8, 0xf3, 0x47, 0x2d, 0x49, 0xcd, 0xce, 0x03, 0x02, 0x56, 0x27, 0xcb, 
0xe4, 0xf1, 0xf8, 0xd1, 0xc0, 0xf2, 0x18, 0x15, 0x3b, 0xeb, 0xef, 0xe5, 
0x11, 0x41, 0x16, 0xcf, 0xed, 0xfc, 0xfd, 0xc1, 0xd7, 0xd2, 0x17, 0x29, 
0x23, 0xd7, 0xde, 0xff, 0x21, 0x37, 0x14, 0xf0, 0xd5, 0xd8, 0xbf, 0xdd, 
0xd1, 0xcf, 0x45, 0x04, 0x0c, 0xf0, 0xcd, 0xd4, 0x08, 0x51, 0x16, 0xc4, 
0xd5, 0xd0, 0xf6, 0xd5, 0xb9, 0xc2, 0x23, 0xe3, 0xdc, 0xee, 0xc1, 0xd1, 
0x0d, 0x4d, 0xf6, 0xd7, 0xd6, 0xe5, 0xf4, 0xca, 0xe7, 0xb5, 0x0e, 0xf7, 
0xc0, 0xe5, 0xcb, 0xbc, 0x19, 0x3a, 0x0d, 0xe6, 0x5f, 0x0d, 0x68, 0xf5, 
0x3c, 0xfb, 0x04, 0x0e, 0x15, 0x08, 0x48, 0x0c, 0x32, 0x0c, 0xf3, 0x7f, 
0x46, 0x2a, 0x64, 0xf7, 0x3e, 0x0b, 0x1c, 0x05, 0x13, 0xec, 0x44, 0x12, 
0x4a, 0x14, 0x07, 0x58, 0x43, 0x0b, 0x66, 0xfd, 0x29, 0x12, 0x21, 0xe9, 
0xfb, 0x08, 0x52, 0x13, 0x3e, 0xf6, 0xe9, 0x47, 0x43, 0x0c, 0x44, 0xf6, 
0x13, 0xf2, 0x22, 0xec, 0xfa, 0x0f, 0x42, 0x0f, 0x1f, 0x14, 0x00, 0x78, 
0x2b, 0x33, 0x4b, 0xfb, 0x11, 0x21, 0x2f, 0x0a, 0x1f, 0x16, 0x45, 0xfd, 
0x34, 0x32, 0x1e, 0x51, 0x5b, 0x1f, 0x5f, 0x06, 0x3a, 0x1d, 0x1b, 0xf3, 
0xfc, 0x05, 0x53, 0x0b, 0x43, 0xf7, 0x04, 0x63, 0x45, 0x2b, 0x6c, 0xfd, 
0x3f, 0x06, 0x22, 0x17, 0xf5, 0x0e, 0x3d, 0xee, 0x2f, 0x22, 0xef, 0x70, 
0x39, 0x2e, 0x60, 0x03, 0x32, 0x0e, 0x25, 0x00, 0x00, 0x09, 0x63, 0x17, 
0x3a, 0x15, 0x16, 0x4c, 0x55, 0x29, 0x75, 0xf8, 0x17, 0x0c, 0x09, 0xf6, 
0xfa, 0x16, 0x4d, 0x0a, 0x3d, 0xfc, 0xf5, 0x5c, 0x38, 0xe3, 0x29, 0xfe, 
0xd0, 0x0b, 0xc6, 0x1c, 0xd2, 0xd4, 0x50, 0xfe, 0xf0, 0x24, 0x00, 0x47, 
0x10, 0xbf, 0x6c, 0x26, 0x25, 0xf2, 0x21, 0xdf, 0x1f, 0xde, 0x26, 0x16, 
0xe2, 0xd5, 0x05, 0x4d, 0x53, 0xd4, 0x4c, 0x1a, 0xd1, 0x09, 0x19, 0xe8, 
0x11, 0xf7, 0x2a, 0x12, 0xd8, 0xea, 0xf3, 0x31, 0x68, 0xe1, 0x4f, 0xe1, 
0xfe, 0x04, 0x01, 0xec, 0x16, 0xcf, 0x41, 0xd4, 0xe1, 0xe7, 0xd5, 0x4e, 
0x4a, 0xf2, 0x1b, 0xf1, 0xf7, 0x1f, 0xfc, 0xf9, 0xf8, 0xea, 0x0c, 0x0c, 
0x03, 0x0a, 0x15, 0x4f, 0x00, 0xe7, 0x13, 0xcc, 0x07, 0x00, 0xd9, 0xf7, 
0x0c, 0x19, 0x0c, 0x0e, 0x1b, 0x2d, 0xeb, 0x2d, 0x41, 0x05, 0x4a, 0xc6, 
0xff, 0xf0, 0xf6, 0x11, 0x00, 0xd1, 0x5f, 0xf2, 0xe9, 0xe7, 0x05, 0x7f, 
0x65, 0xc6, 0x4a, 0xf9, 0x13, 0x1f, 0xe3, 0x0b, 0xf8, 0xe1, 0x2c, 0xd6, 
0xd7, 0xeb, 0xf3, 0x1c, 0x1b, 0xfb, 0x52, 0xde, 0xe1, 0x03, 0xf2, 0x04, 
0xd9, 0x0e, 0x02, 0xdd, 0xe3, 0x2f, 0xe7, 0x0e, 0x54, 0x03, 0x42, 0xfa, 
0x3c, 0x06, 0x21, 0xf2, 0x0d, 0xf9, 0x36, 0xf4, 0x42, 0x01, 0x0d, 0x72, 
0x3c, 0x0a, 0x6a, 0xf1, 0x3a, 0x04, 0x31, 0x12, 0x1b, 0x1c, 0x28, 0x15, 
0x17, 0x10, 0x08, 0x71, 0x52, 0x1a, 0x61, 0xec, 0x1b, 0x1b, 0x32, 0xef, 
0x16, 0x1f, 0x41, 0x0e, 0x3e, 0xfa, 0xf8, 0x53, 0x61, 0x13, 0x66, 0x08, 
0x2a, 0x14, 0x34, 0xec, 0x14, 0xf1, 0x44, 0xf4, 0x4a, 0x0a, 0x16, 0x68, 
0x3d, 0x15, 0x58, 0xf2, 0x18, 0x24, 0x29, 0x03, 0x10, 0x04, 0x3b, 0x18, 
0x25, 0x0f, 0x19, 0x6b, 0x3a, 0x29, 0x6c, 0xfe, 0x3e, 0x24, 0x45, 0x06, 
0x00, 0x09, 0x23, 0x13, 0x38, 0x13, 0x22, 0x57, 0x58, 0x20, 0x49, 0x0b, 
0x19, 0xf3, 0x22, 0x0c, 0x1b, 0x00, 0x4b, 0xfd, 0x35, 0x04, 0x18, 0x7f, 
0x47, 0x20, 0x4a, 0xf5, 0x2f, 0x1c, 0x18, 0xf5, 0x0c, 0xf2, 0x41, 0x19, 
0x32, 0x0a, 0x15, 0x55, 0x42, 0x1d, 0x5f, 0x1b, 0x10, 0x1b, 0x1c, 0x04, 
0xf8, 0x09, 0x56, 0xf1, 0x43, 0xf6, 0x14, 0x7b, 0xe5, 0x4a, 0xf1, 0x01, 
0x14, 0x02, 0x36, 0x06, 0x35, 0x08, 0xef, 0x21, 0x18, 0x2a, 0x39, 0xbf, 
0xf6, 0x1a, 0xef, 0xe8, 0xf5, 0xf7, 0x22, 0x09, 0xfa, 0xff, 0xc1, 0x23, 
0x2d, 0x3d, 0x0f, 0xb7, 0xe6, 0x0f, 0xc4, 0xd3, 0x04, 0x03, 0x0a, 0xf1, 
0x03, 0xeb, 0xea, 0xfe, 0x40, 0x7f, 0x39, 0xbc, 0xc8, 0xf8, 0xd5, 0xdb, 
0xee, 0x0c, 0x25, 0xf6, 0x19, 0xe7, 0xbf, 0xe4, 0x21, 0x31, 0xfd, 0xe5, 
0xc9, 0xf5, 0xc8, 0xf4, 0xe6, 0xe8, 0x07, 0xe3, 0x15, 0x08, 0xd1, 0xf9, 
0x16, 0x49, 0x0c, 0xe3, 0xd0, 0xec, 0xaf, 0xd2, 0x01, 0xe0, 0x0f, 0x02, 
0xf9, 0xf6, 0xdf, 0x19, 0x2b, 0x70, 0xff, 0xc5, 0xd2, 0xf6, 0xb5, 0xcf, 
0xf4, 0xfe, 0x24, 0xfb, 0x06, 0xec, 0xcc, 0xf9, 0x2d, 0x49, 0xf7, 0xae, 
0xbd, 0xe1, 0xb7, 0xf1, 0xd5, 0x17, 0x0e, 0x1e, 0xf6, 0xcb, 0xc2, 0xee, 
0x1d, 0x46, 0xf5, 0xeb, 0xc8, 0xe2, 0xbf, 0xe5, 0x1c, 0x17, 0x0b, 0x10, 
0x1e, 0xf8, 0xc3, 0xe2, 0x32, 0x71, 0xf8, 0xa9, 0xad, 0x1b, 0xab, 0xcd, 
0xe4, 0x03, 0x6a, 0xf8, 0x0a, 0xce, 0xde, 0xdc, 0x16, 0x69, 0x14, 0xac, 
0xe8, 0xe5, 0x90, 0xea, 0xf3, 0xf6, 0x68, 0xff, 0xf6, 0xea, 0xba, 0x01, 
0x33, 0x5e, 0x29, 0xa3, 0xf2, 0xe6, 0x85, 0xc5, 0x27, 0xd5, 0x3c, 0xec, 
0xdb, 0xba, 0xe7, 0xcf, 0x44, 0x76, 0x15, 0xbc, 0xcf, 0x14, 0xba, 0xdf, 
0xd7, 0xf2, 0x7b, 0xe1, 0xfb, 0xc3, 0xdb, 0xf7, 0x45, 0x61, 0xee, 0xc5, 
0xbd, 0x01, 0xae, 0xe3, 0x12, 0xf2, 0x3f, 0xeb, 0xf5, 0xc6, 0xd1, 0xd3, 
0x25, 0x52, 0xf9, 0xd4, 0xd4, 0x0a, 0x8d, 0xce, 0x38, 0xf3, 0x29, 0xe8, 
0xcd, 0xc4, 0xcb, 0xd2, 0x3c, 0x6a, 0x1c, 0xce, 0xbf, 0x2c, 0x9a, 0xfd, 
0x11, 0xef, 0x59, 0x0a, 0x1f, 0xe8, 0xb1, 0xfa, 0x3d, 0x75, 0x00, 0xa8, 
0xce, 0xdf, 0xb0, 0x07, 0x25, 0x03, 0x5d, 0x06, 0xeb, 0xdf, 0x97, 0xd6, 
0x35, 0x68, 0x0a, 0x8b, 0xc7, 0x07, 0x81, 0x03, 0x30, 0xe5, 0x5c, 0x13, 
0x0f, 0xd8, 0x99, 0xd7, 0x62, 0x74, 0xfc, 0x9f, 0x38, 0x3a, 0x5b, 0x05, 
0x0b, 0x0a, 0x1b, 0x10, 0x1d, 0x16, 0x56, 0xf1, 0x61, 0x13, 0x04, 0x66, 
0x42, 0x34, 0x4a, 0xfa, 0x27, 0x27, 0x33, 0xe6, 0x17, 0x04, 0x3b, 0x16, 
0x6c, 0x17, 0xff, 0x39, 0x52, 0x32, 0x69, 0x01, 0x27, 0x3b, 0x49, 0xec, 
0x26, 0x1d, 0x1f, 0x0f, 0x51, 0x41, 0x0d, 0x59, 0x3f, 0x32, 0x3a, 0x0e, 
0x24, 0x0e, 0x18, 0x03, 0xf2, 0x0c, 0x3d, 0x0a, 0x59, 0x01, 0x0b, 0x42, 
0x52, 0x31, 0x3f, 0xf6, 0x16, 0x18, 0x30, 0xfc, 0x0c, 0x10, 0x2f, 0xfe, 
0x51, 0x13, 0x0b, 0x61, 0x3e, 0x4a, 0x6d, 0x03, 0x33, 0x3f, 0x66, 0xf6, 
0x0b, 0xfc, 0x2c, 0x1e, 0x4a, 0x2f, 0x02, 0x57, 0x45, 0x37, 0x48, 0xfa, 
0x04, 0x10, 0x0c, 0xf8, 0xfb, 0xee, 0x5c, 0xf9, 0x7f, 0xe5, 0x0b, 0x75, 
0x51, 0x3a, 0x70, 0x13, 0x3a, 0x17, 0x4a, 0x13, 0x1b, 0x06, 0x4c, 0x20, 
0x5a, 0x03, 0xef, 0x69, 0x2e, 0x4b, 0x54, 0x11, 0x2e, 0x19, 0x32, 0xef, 
0x2b, 0xff, 0x5c, 0x09, 0x5c, 0x41, 0x1e, 0x4e, 0xd5, 0x16, 0xd4, 0xe0, 
0xf8, 0x09, 0x26, 0x3a, 0x65, 0x09, 0xe5, 0x28, 0x31, 0x49, 0x2f, 0xbf, 
0xcd, 0x11, 0xc0, 0xf3, 0x12, 0x14, 0x30, 0x3f, 0x52, 0xea, 0xe3, 0x29, 
0x30, 0x5b, 0x46, 0xe3, 0xb6, 0x1d, 0xd3, 0xdb, 0x18, 0xfd, 0x39, 0x1b, 
0x24, 0xf6, 0xca, 0x33, 0x1b, 0x5e, 0x7f, 0xdc, 0xc9, 0xfa, 0xfc, 0x02, 
0xf8, 0xec, 0x53, 0x23, 0x31, 0xe2, 0xc8, 0xcf, 0x12, 0x60, 0x09, 0xcb, 
0xe3, 0x0d, 0xc7, 0xfe, 0xe2, 0xe7, 0x23, 0x08, 0x25, 0xd0, 0xde, 0xdf, 
0x15, 0x2b, 0x12, 0xbe, 0xe9, 0xef, 0xaf, 0xc7, 0xea, 0xf9, 0x18, 0x13, 
0x00, 0xdc, 0xe0, 0xfb, 0x17, 0x59, 0x26, 0xde, 0xc5, 0x0b, 0xcd, 0x0d, 
0xdc, 0xde, 0x3f, 0x0a, 0x0a, 0xe3, 0xb8, 0xd4, 0x2a, 0x5a, 0x11, 0xa8, 
0xde, 0xe9, 0xe4, 0xda, 0x0a, 0xe0, 0x23, 0x0a, 0xf5, 0xe6, 0xb6, 0xb0, 
0xfb, 0x3a, 0x0b, 0xda, 0xe0, 0x28, 0xc7, 0xc7, 0x06, 0x05, 0x30, 0x1d, 
0x0a, 0xec, 0xd9, 0xda, 0x24, 0x5c, 0x03, 0xb8, 0x64, 0xcd, 0x4a, 0xd6, 
0xd2, 0x62, 0x4a, 0xc2, 0xc2, 0x03, 0x01, 0xf0, 0xec, 0xa5, 0xe6, 0x03, 
0xb2, 0x29, 0x2d, 0x15, 0x36, 0x9c, 0xad, 0x2e, 0xf5, 0xc5, 0xd1, 0xef, 
0xe8, 0xbf, 0xfe, 0x61, 0x2a, 0x53, 0x62, 0xcf, 0x24, 0x65, 0x2f, 0x0b, 
0x2e, 0x9e, 0x49, 0xba, 0x53, 0xd1, 0xea, 0xd8, 0x07, 0xf8, 0xef, 0xac, 
0xff, 0x9c, 0xfb, 0xad, 0x1c, 0xc3, 0x6a, 0x54, 0xdc, 0xf5, 0x54, 0xe4, 
0x62, 0xbe, 0xcb, 0x14, 0x98, 0x5c, 0xd2, 0x9a, 0xda, 0xb9, 0xaf, 0x32, 
0x99, 0xac, 0x04, 0x81, 0xdc, 0xc0, 0x23, 0xea, 0x52, 0xbe, 0xfa, 0xa1, 
0xa4, 0xac, 0xf4, 0x05, 0x34, 0xcc, 0xa7, 0xa0, 0xdc, 0x57, 0xef, 0x26, 
0x13, 0x43, 0xa9, 0x3c, 0xe9, 0x32, 0x1f, 0xee, 0xfa, 0x23, 0xf0, 0xc3, 
0x60, 0x3d, 0x57, 0xf5, 0x05, 0x00, 0x99, 0xa2, 0xdd, 0xe6, 0x47, 0x38, 
0xfe, 0x21, 0xc8, 0x44, 0x2f, 0xe8, 0x89, 0x86, 0x51, 0x8e, 0xcd, 0xad, 
0xaf, 0x22, 0x50, 0x52, 0xd4, 0x33, 0x32, 0x52, 0x5f, 0x26, 0x49, 0x17, 
0x4f, 0x25, 0x5e, 0xf4, 0x12, 0x1f, 0x3a, 0xfd, 0x66, 0x26, 0xfb, 0x5d, 
0x55, 0x3e, 0x6f, 0x14, 0x5a, 0x28, 0x49, 0x1e, 0x0d, 0x16, 0x50, 0xf3, 
0x52, 0x05, 0xfe, 0x69, 0x3f, 0x4c, 0x64, 0xd7, 0x32, 0xdd, 0xf8, 0xe7, 
0xf9, 0xf1, 0x54, 0xfb, 0x3a, 0xc7, 0xf7, 0x78, 0x61, 0x2e, 0x3d, 0x14, 
0x59, 0x27, 0x47, 0xf1, 0x21, 0x17, 0x38, 0x02, 0x60, 0x06, 0x14, 0x54, 
0x5a, 0x55, 0x4c, 0x09, 0x5b, 0x13, 0x16, 0x12, 0x00, 0x03, 0x4d, 0x1a, 
0x78, 0xf0, 0x20, 0x6f, 0x4d, 0x45, 0x68, 0xe9, 0x2c, 0xcc, 0x14, 0xf2, 
0xd9, 0xec, 0x65, 0xde, 0x4b, 0xf8, 0x0d, 0x73, 0x52, 0x3e, 0x58, 0xfc, 
0x42, 0x2a, 0x3c, 0x12, 0x2b, 0x04, 0x62, 0x0a, 0x7a, 0x2a, 0x05, 0x4e, 
0x48, 0x54, 0x52, 0x01, 0x6b, 0x07, 0x21, 0x1d, 0xf3, 0x10, 0x6f, 0xf3, 
0x49, 0xf8, 0x23, 0x6a, 0x48, 0x50, 0x7f, 0x01, 0x48, 0xf7, 0xf9, 0xed, 
0xe2, 0xea, 0x64, 0xff, 0x67, 0xda, 0x0d, 0x66, 0x5b, 0x3c, 0x48, 0x1e, 
0x16, 0x05, 0x33, 0xea, 0x20, 0x10, 0x3b, 0xfc, 0x61, 0x00, 0xf6, 0x4e, 
0x48, 0x46, 0x49, 0x00, 0x1c, 0x06, 0x1b, 0x0c, 0x1c, 0x13, 0x52, 0xf2, 
0x66, 0x01, 0x07, 0x69, 0x43, 0x25, 0x5f, 0xf9, 0x03, 0xec, 0x34, 0xf9, 
0xfa, 0xe7, 0x68, 0xed, 0x2d, 0xe5, 0xfc, 0x54, 0x31, 0x44, 0x39, 0x0d, 
0x20, 0x26, 0x3d, 0x0e, 0x28, 0x16, 0x4d, 0x07, 0x41, 0x12, 0x22, 0x3a, 
0x55, 0x2b, 0x68, 0x17, 0x2b, 0x12, 0x13, 0x03, 0x07, 0xfa, 0x43, 0xf2, 
0x5d, 0xda, 0xfe, 0x45, 0x42, 0x11, 0x76, 0xf9, 0x16, 0xd8, 0xf4, 0xea, 
0xeb, 0xfa, 0x44, 0xdc, 0x32, 0xea, 0x08, 0x74, 0x56, 0x33, 0x46, 0x0a, 
0x2d, 0x10, 0x26, 0xfa, 0x0a, 0x0a, 0x64, 0x0a, 0x5a, 0x17, 0x0b, 0x6f, 
0x40, 0x52, 0x47, 0x06, 0x13, 0xf3, 0x0f, 0x0a, 0x01, 0x00, 0x40, 0x13, 
0x5e, 0xf7, 0x1a, 0x73, 0x62, 0x2b, 0x5d, 0xe0, 0x05, 0xe9, 0xfd, 0xee, 
0xf1, 0x09, 0x69, 0xdc, 0x32, 0xe3, 0x08, 0x7f, 0xc0, 0x36, 0xe9, 0xf2, 
0x12, 0x16, 0x52, 0xfb, 0x3f, 0xfe, 0xbd, 0x1d, 0x30, 0x4b, 0x11, 0xc3, 
0xb9, 0x0a, 0xec, 0xf7, 0xf4, 0x0a, 0x1a, 0xfc, 0x0d, 0xfb, 0xd6, 0xef, 
0x21, 0x55, 0x26, 0xbf, 0xd9, 0x22, 0xc5, 0xc8, 0x1b, 0xdb, 0x4b, 0x16, 
0xf4, 0xce, 0xdd, 0xec, 0x25, 0x7f, 0x47, 0xb0, 0xd0, 0xf2, 0xd0, 0xec, 
0xcc, 0xd5, 0x4e, 0x0e, 0x2c, 0xd9, 0xdd, 0xd0, 0x1a, 0x3b, 0x19, 0xb8, 
0xc4, 0xea, 0xc1, 0xfd, 0xca, 0xe0, 0x32, 0xf6, 0x1f, 0xdd, 0xf1, 0xd6, 
0xf6, 0x55, 0xf5, 0xca, 0xcb, 0x14, 0xbb, 0xf7, 0xf7, 0x02, 0x46, 0xf9, 
0xfd, 0xd5, 0xec, 0xf7, 0x0b, 0x55, 0x1b, 0xc8, 0xb5, 0xf8, 0xbd, 0xee, 
0xdb, 0x07, 0x29, 0x01, 0x0c, 0x0b, 0x9d, 0xd6, 0x20, 0x3f, 0x0c, 0xc3, 
0xc2, 0xe6, 0xca, 0xdc, 0x08, 0xdf, 0x25, 0xec, 0xe8, 0xfb, 0xab, 0xdb, 
0x22, 0x49, 0x08, 0xa2, 0xb7, 0xf8, 0xd4, 0xd6, 0x01, 0xf4, 0x2b, 0x06, 
0x0e, 0xe6, 0xd1, 0xf8, 0x33, 0x5b, 0x13, 0xb5, 0x4a, 0x7b, 0x3e, 0x0d, 
0x2d, 0x3a, 0x2c, 0xf4, 0x2b, 0x16, 0x53, 0x1c, 0x50, 0x05, 0x10, 0x4d, 
0x5d, 0x54, 0x5a, 0x11, 0x48, 0x08, 0x32, 0x04, 0x0f, 0x17, 0x5d, 0x15, 
0x54, 0x03, 0x17, 0x3e, 0x56, 0x33, 0x5e, 0xe5, 0x07, 0xeb, 0x0e, 0xee, 
0xe4, 0xf2, 0x6e, 0xe1, 0x2a, 0xce, 0x0b, 0x56, 0x52, 0x5b, 0x51, 0x11, 
0x43, 0x24, 0x23, 0x14, 0x15, 0xfd, 0x46, 0x06, 0x62, 0x05, 0x10, 0x52, 
0x45, 0x46, 0x56, 0x10, 0x42, 0x0b, 0x20, 0xe2, 0xfb, 0x00, 0x35, 0xf6, 
0x60, 0xf5, 0x0b, 0x39, 0x5d, 0x33, 0x48, 0xf3, 0x2e, 0xf8, 0x16, 0xff, 
0x09, 0x02, 0x65, 0x02, 0x39, 0xed, 0xfb, 0x45, 0x4e, 0x7f, 0x50, 0x00, 
0x5b, 0x3e, 0x33, 0xf3, 0x15, 0x1d, 0x3d, 0x0a, 0x66, 0x1c, 0x0a, 0x4c, 
0x54, 0x63, 0x62, 0xfd, 0x29, 0x1c, 0x22, 0xe9, 0x1f, 0xff, 0x6a, 0x11, 
0x35, 0x17, 0x14, 0x5d, 0x6a, 0x45, 0x55, 0xec, 0x1d, 0xf4, 0x14, 0xf1, 
0xfa, 0xe8, 0x5d, 0xe2, 0x2c, 0xdb, 0xe9, 0x5d, 0xb5, 0x0a, 0xd2, 0xff, 
0xf3, 0x02, 0x5a, 0x0c, 0x1d, 0xc1, 0xde, 0x04, 0x22, 0x7f, 0x0f, 0xbc, 
0xef, 0xe6, 0xc0, 0xde, 0xf3, 0xf2, 0x4c, 0xe9, 0x19, 0xd7, 0xdf, 0xf5, 
0x29, 0x5d, 0x2a, 0xcd, 0xe8, 0x07, 0x9a, 0xec, 0x1c, 0xf1, 0x53, 0xeb, 
0xf1, 0xb3, 0xe0, 0xef, 0x4d, 0x5f, 0x18, 0xc8, 0xad, 0x21, 0xb6, 0xef, 
0xe1, 0xe5, 0x57, 0xf8, 0x20, 0xf1, 0xdf, 0xec, 0x2d, 0x5d, 0x23, 0xa8, 
0xc1, 0xf5, 0xb2, 0xe1, 0xed, 0x10, 0x2e, 0x0b, 0xe9, 0xd2, 0xbe, 0xd4, 
0x39, 0x4d, 0xe8, 0xa4, 0xcc, 0x23, 0xba, 0xfc, 0x05, 0xec, 0x4a, 0xe5, 
0xf7, 0xe3, 0xe4, 0xd3, 0x3e, 0x35, 0x04, 0xc8, 0xc7, 0x28, 0xb4, 0x02, 
0xe9, 0x0d, 0x54, 0x04, 0x08, 0xee, 0xaa, 0xf3, 0x25, 0x68, 0x02, 0x9d, 
0xcf, 0x0c, 0xa7, 0xda, 0xf4, 0xf2, 0x5e, 0x0a, 0xf3, 0xe0, 0xae, 0xd8, 
0x1e, 0x4d, 0xfc, 0xb5, 0xc0, 0x02, 0xb8, 0xfa, 0x13, 0xe3, 0x3e, 0xf3, 
0xfa, 0xcb, 0xb5, 0xef, 0x40, 0x65, 0x1f, 0xb7, 0xea, 0xa5, 0xee, 0x3d, 
0x2a, 0xce, 0xeb, 0x4d, 0xaf, 0xcf, 0xd6, 0xe3, 0x99, 0x2e, 0x23, 0xc5, 
0xc9, 0xf1, 0x19, 0x1d, 0xb8, 0xc9, 0xb8, 0xfe, 0x0d, 0x1f, 0x15, 0xda, 
0x47, 0xba, 0xc7, 0xd2, 0x1b, 0xd0, 0x4a, 0xf3, 0xc5, 0xf7, 0xda, 0x1f, 
0xb8, 0x59, 0x13, 0x9e, 0xb5, 0x17, 0xdf, 0x02, 0xe1, 0x35, 0xe3, 0x3e, 
0xf6, 0x2b, 0xfe, 0xd0, 0xfd, 0xf4, 0xde, 0x10, 0x90, 0xa4, 0x31, 0xa8, 
0xe7, 0xee, 0x3f, 0xae, 0xa5, 0xac, 0xdc, 0x21, 0x05, 0xc7, 0x3e, 0xc7, 
0x0c, 0xd2, 0xbd, 0xc0, 0x14, 0x5d, 0x29, 0x20, 0xa9, 0x4c, 0xf9, 0xb0, 
0x45, 0xad, 0xf0, 0x98, 0xd7, 0x15, 0x22, 0x21, 0x4b, 0x30, 0x62, 0xb8, 
0x0e, 0x81, 0x3b, 0xc9, 0x19, 0x02, 0xf4, 0x40, 0xbc, 0xa3, 0xa4, 0x9c, 
0x1a, 0x21, 0x0b, 0x99, 0xc4, 0x37, 0x3a, 0x98, 0xf7, 0x1b, 0xe5, 0xbb, 
0x1f, 0xa6, 0xf1, 0x5f, 0x18, 0x1a, 0xc4, 0x9a, 0x9b, 0x24, 0xcf, 0x17, 
0x21, 0xdb, 0xc8, 0xa8, 0xa3, 0x10, 0xa6, 0xaa, 0x0d, 0xee, 0xb9, 0x24, 
0xd6, 0x0e, 0xfc, 0xe6, 0xfc, 0x12, 0xd6, 0xf3, 0x81, 0x0a, 0x08, 0xf0, 
0xe1, 0xd2, 0xdd, 0x19, 0xce, 0xf2, 0xd9, 0x1f, 0xe1, 0x0a, 0xe9, 0xf7, 
0x9a, 0xe7, 0xe6, 0xfd, 0xe3, 0xc1, 0x01, 0x09, 0xc0, 0x0e, 0xc0, 0x0d, 
0xd9, 0xfe, 0xe6, 0x10, 0xc9, 0xf5, 0xeb, 0xf7, 0xe7, 0xca, 0xe6, 0x03, 
0xfb, 0x06, 0x05, 0xe9, 0x08, 0xf4, 0xe6, 0x18, 0x82, 0x02, 0x0a, 0xed, 
0x00, 0xcb, 0xfa, 0x28, 0xe0, 0xf7, 0xf0, 0x27, 0x01, 0xf4, 0x23, 0xfa, 
0xc8, 0xfd, 0xe2, 0x02, 0x11, 0xfb, 0xec, 0x2c, 0xe8, 0xd1, 0xb6, 0xfb, 
0x0c, 0x1d, 0xe9, 0xf7, 0xd2, 0x05, 0x1c, 0x20, 0xd0, 0xba, 0x9d, 0x20, 
0xf7, 0x01, 0xe3, 0xe9, 0xda, 0x31, 0xf3, 0xff, 0xb8, 0x12, 0xea, 0xf6, 
0x0a, 0xe1, 0xbf, 0xeb, 0xfb, 0xfd, 0xe8, 0xe3, 0x03, 0x05, 0xf3, 0xf4, 
0xa5, 0x1d, 0x18, 0xfd, 0xdc, 0xc1, 0xc5, 0x1f, 0xc2, 0xda, 0xda, 0x04, 
0x0d, 0x0a, 0xef, 0x2c, 0xd0, 0x0b, 0x1c, 0xcd, 0x35, 0x30, 0x47, 0xee, 
0x36, 0x23, 0x32, 0x0b, 0xf9, 0xff, 0x55, 0x19, 0x3d, 0x05, 0x08, 0x79, 
0x41, 0x28, 0x51, 0x10, 0x2d, 0xf6, 0x26, 0x0a, 0x26, 0xed, 0x36, 0x0c, 
0x55, 0x1c, 0xef, 0x6e, 0x4c, 0x4a, 0x52, 0x18, 0x26, 0x06, 0x3d, 0x1a, 
0x13, 0x07, 0x3f, 0xfe, 0x5d, 0xff, 0x19, 0x65, 0x52, 0x1b, 0x40, 0x1b, 
0x2f, 0x00, 0x19, 0xef, 0x28, 0xee, 0x53, 0x06, 0x43, 0xfc, 0x23, 0x62, 
0x44, 0x37, 0x56, 0x04, 0x17, 0x00, 0x36, 0xec, 0x15, 0x13, 0x3b, 0xf9, 
0x3a, 0x20, 0xfc, 0x68, 0x38, 0x1e, 0x7f, 0x14, 0x32, 0x1d, 0x34, 0xfc, 
0x28, 0xf6, 0x2b, 0x17, 0x5a, 0x1d, 0x03, 0x47, 0x5c, 0x19, 0x4d, 0x19, 
0x2b, 0x25, 0x48, 0xf0, 0x13, 0x12, 0x3d, 0x16, 0x3e, 0x1c, 0x1d, 0x7c, 
0x3b, 0x2c, 0x76, 0x19, 0x3f, 0x00, 0x3b, 0x14, 0x09, 0x08, 0x53, 0xf2, 
0x30, 0x0d, 0x01, 0x5e, 0x4a, 0x1e, 0x64, 0xec, 0x24, 0x0a, 0x41, 0xe9, 
0x05, 0x18, 0x6e, 0x04, 0x49, 0xf8, 0x00, 0x69, 0x39, 0x4c, 0x43, 0xf9, 
0x13, 0x0f, 0x65, 0x1e, 0x20, 0x18, 0x51, 0x16, 0x20, 0x3f, 0x16, 0x49, 
0x27, 0x2b, 0x28, 0x1f, 0x10, 0x19, 0x6e, 0x06, 0x2a, 0xf5, 0x58, 0x10, 
0x5b, 0x4b, 0x2e, 0x4f, 0x51, 0x37, 0x08, 0x1f, 0x09, 0x25, 0x7f, 0xf7, 
0x21, 0xf6, 0x1b, 0x2b, 0x44, 0x45, 0x1d, 0x22, 0x25, 0x42, 0x1a, 0x28, 
0x33, 0x2c, 0x60, 0x1f, 0x19, 0x12, 0x1c, 0x0a, 0x35, 0x39, 0x1f, 0x15, 
0x24, 0x39, 0x3b, 0x13, 0x11, 0x1e, 0x6c, 0xfb, 0x2f, 0xfe, 0x33, 0x20, 
0x60, 0x26, 0x2d, 0x23, 0x40, 0x46, 0x2a, 0x24, 0x14, 0x31, 0x6c, 0x1c, 
0x23, 0x1c, 0x40, 0xfe, 0x40, 0x31, 0x33, 0x51, 0x2f, 0x42, 0x2b, 0x20, 
0x24, 0x42, 0x43, 0x14, 0x43, 0x2d, 0x34, 0x1e, 0x5a, 0x38, 0x53, 0x13, 
0x34, 0x30, 0x28, 0x29, 0x29, 0x23, 0x2d, 0x03, 0x35, 0x21, 0x17, 0x23, 
0x4f, 0x29, 0x2d, 0x25, 0x4b, 0x46, 0x18, 0x02, 0x20, 0x1d, 0x4e, 0xf4, 
0x0d, 0x1e, 0x31, 0x20, 0x3f, 0x30, 0x1e, 0x13, 0x41, 0x44, 0x39, 0x10, 
0x28, 0x0c, 0x37, 0x13, 0x1f, 0x18, 0x46, 0x03, 0x66, 0xf9, 0x0c, 0x55, 
0x4c, 0x46, 0x6f, 0x14, 0x05, 0xe3, 0x13, 0x0e, 0xee, 0xff, 0x54, 0x02, 
0x58, 0xd5, 0x00, 0x61, 0x5a, 0x17, 0x66, 0xfb, 0x0b, 0xe6, 0x18, 0xe6, 
0xf5, 0x05, 0x41, 0xe2, 0x25, 0xf2, 0x11, 0x55, 0x42, 0x33, 0x40, 0x1d, 
0x32, 0x07, 0x23, 0xf3, 0xfc, 0x1e, 0x45, 0x02, 0x5d, 0x22, 0x21, 0x6d, 
0x29, 0x31, 0x67, 0xed, 0xf7, 0xe8, 0x07, 0xea, 0xf9, 0x11, 0x5c, 0x02, 
0x4e, 0xff, 0x03, 0x61, 0x3c, 0x25, 0x64, 0xeb, 0xf9, 0xde, 0x10, 0xec, 
0xdf, 0xe4, 0x5d, 0xf3, 0x22, 0xda, 0xfb, 0x58, 0x4d, 0x44, 0x52, 0x0e, 
0x1a, 0x1e, 0x2a, 0x01, 0x0a, 0x0a, 0x67, 0x20, 0x6c, 0x0b, 0x2a, 0x50, 
0x41, 0x4f, 0x6b, 0xf0, 0x0f, 0xe9, 0x06, 0xff, 0xeb, 0xf4, 0x43, 0xf9, 
0x53, 0xde, 0x07, 0x67, 0x3b, 0x05, 0x79, 0xdc, 0x26, 0xfe, 0x08, 0xe9, 
0xed, 0xfb, 0x5f, 0xd9, 0x0e, 0xe6, 0x09, 0x7f, 0x36, 0x0e, 0x49, 0x06, 
0xd6, 0xd9, 0xfb, 0xdb, 0xe9, 0x08, 0x58, 0x15, 0x28, 0x04, 0x0c, 0x51, 
0x46, 0x13, 0x72, 0x06, 0x13, 0x15, 0xe5, 0xd3, 0xce, 0xe3, 0x6a, 0x02, 
0xe6, 0xfe, 0x18, 0x4e, 0x42, 0x19, 0x5b, 0x06, 0x00, 0xdd, 0xec, 0x1e, 
0x1c, 0xd1, 0x5e, 0xe7, 0x10, 0x02, 0xeb, 0x56, 0x6c, 0xef, 0x3d, 0xca, 
0xe6, 0xdc, 0x0c, 0x02, 0xcf, 0x29, 0x4d, 0xe9, 0x3e, 0xe4, 0x0e, 0x29, 
0x5b, 0x08, 0x32, 0xec, 0xcf, 0xd7, 0xdd, 0xf9, 0x21, 0xdb, 0x72, 0xf4, 
0xf9, 0xd9, 0xe5, 0x6d, 0x57, 0xf2, 0x18, 0xe9, 0x10, 0x01, 0xe3, 0x0a, 
0x1e, 0x08, 0x4c, 0xe7, 0xe8, 0xd8, 0x00, 0x4b, 0x4d, 0x1c, 0x24, 0xd0, 
0xdc, 0xfd, 0xc3, 0x08, 0x05, 0xe4, 0x22, 0xfa, 0x47, 0x1a, 0xe0, 0x64, 
0x5e, 0xf9, 0x23, 0x19, 0xd0, 0x04, 0xc9, 0xff, 0xd5, 0xda, 0x7b, 0xff, 
0x0c, 0xfb, 0xc8, 0x62, 0x4d, 0xe3, 0x35, 0xe1, 0xfe, 0xd1, 0xef, 0xe5, 
0x1f, 0x11, 0x7f, 0x02, 0x24, 0xd1, 0xcc, 0x48, 0x59, 0x35, 0x57, 0x19, 
0x10, 0x0d, 0x12, 0x06, 0x03, 0x11, 0x50, 0x08, 0x5e, 0xe8, 0x03, 0x39, 
0x3c, 0x2d, 0x5a, 0x0c, 0x03, 0xf5, 0x17, 0x0e, 0x00, 0x0e, 0x4c, 0xfe, 
0x33, 0xdd, 0x09, 0x57, 0x4e, 0x1a, 0x5e, 0xe7, 0x0f, 0xe2, 0x25, 0xf0, 
0x0b, 0xf4, 0x54, 0xe8, 0x37, 0xd4, 0xfd, 0x51, 0x4e, 0x45, 0x3a, 0x05, 
0x04, 0x1b, 0x05, 0x08, 0x1b, 0x18, 0x2f, 0xfc, 0x4c, 0xe2, 0x1e, 0x59, 
0x39, 0x15, 0x47, 0x02, 0x0a, 0xf4, 0x26, 0x0c, 0x10, 0xf8, 0x3c, 0xfa, 
0x2f, 0xf6, 0x11, 0x62, 0x3e, 0x14, 0x7f, 0x02, 0xf4, 0x09, 0x05, 0x01, 
0xea, 0xe2, 0x68, 0xe2, 0x3f, 0xd3, 0x04, 0x6d, 0x4f, 0x57, 0x5e, 0x1a, 
0xf7, 0x07, 0x12, 0xf3, 0x01, 0x15, 0x39, 0x09, 0x5e, 0xfa, 0xfc, 0x50, 
0x4e, 0x25, 0x52, 0x06, 0x13, 0x1a, 0x25, 0xfb, 0x12, 0x0c, 0x42, 0x0e, 
0x43, 0x0a, 0x1f, 0x55, 0x64, 0x31, 0x73, 0xdf, 0x11, 0xec, 0xf4, 0xf6, 
0xe3, 0xf0, 0x51, 0xfe, 0x33, 0xf2, 0x03, 0x6f, 0xb8, 0x29, 0xe5, 0xf1, 
0x1d, 0x2f, 0x2f, 0x0a, 0x40, 0x09, 0xd8, 0x08, 0x18, 0x51, 0x10, 0xce, 
0xbb, 0x1b, 0xb8, 0x08, 0xf6, 0x28, 0x18, 0x0f, 0x3d, 0xe2, 0xe8, 0x02, 
0x2b, 0x6b, 0x31, 0xcd, 0xb0, 0x2e, 0xda, 0xf6, 0xee, 0xfb, 0x39, 0x0d, 
0x31, 0xdf, 0xee, 0x07, 0x5a, 0x50, 0x38, 0xc0, 0x9c, 0xff, 0xd3, 0xd7, 
0x03, 0xfd, 0x49, 0xfc, 0x05, 0x05, 0xd4, 0xe7, 0x1b, 0x3c, 0xf5, 0xd9, 
0xc6, 0xf7, 0xe9, 0xd7, 0xd0, 0xe9, 0x34, 0x1b, 0x00, 0xdd, 0xc1, 0x0d, 
0xf6, 0x61, 0x16, 0xda, 0xa1, 0xdf, 0xd9, 0xd8, 0xf2, 0x15, 0x17, 0x0d, 
0xed, 0xfa, 0xd3, 0xe2, 0x21, 0x5f, 0x15, 0xf6, 0x9c, 0x1e, 0xd1, 0xe6, 
0x01, 0xec, 0x12, 0x12, 0x0f, 0xe8, 0xd8, 0x05, 0x2e, 0x2e, 0xfb, 0xca, 
0x9f, 0xe5, 0xee, 0xeb, 0xd9, 0x0f, 0x05, 0xeb, 0xf9, 0xd9, 0xc9, 0xfe, 
0x29, 0x55, 0xf5, 0xec, 0xb5, 0x05, 0xc1, 0xfa, 0x05, 0x02, 0x3a, 0x07, 
0xe2, 0xcd, 0xd7, 0xda, 0x27, 0x7f, 0xed, 0xcf, 0xde, 0x22, 0xbc, 0xe5, 
0xdd, 0x16, 0x75, 0x0e, 0x2c, 0xb2, 0xd6, 0xde, 0x34, 0x78, 0x14, 0xb2, 
0xd2, 0xf7, 0xa6, 0xdb, 0xec, 0x0a, 0x68, 0xf0, 0xf4, 0xe1, 0xce, 0xef, 
0x2a, 0x5e, 0x09, 0xb1, 0xc2, 0xf6, 0xb4, 0xbc, 0x18, 0xe5, 0x30, 0xfe, 
0x03, 0xc9, 0xec, 0xde, 0x57, 0x7a, 0x45, 0xc7, 0xb6, 0x3c, 0xb1, 0xe4, 
0xe6, 0xee, 0x64, 0xf0, 0x17, 0xca, 0xdb, 0xe0, 0x1b, 0x5b, 0xf6, 0x9b, 
0xce, 0x0a, 0x98, 0xcf, 0x0e, 0xf9, 0x50, 0xe6, 0xf9, 0xc9, 0xec, 0xd2, 
0x1a, 0x50, 0xe6, 0xa9, 0xcf, 0x0f, 0x9d, 0xe6, 0x32, 0xe5, 0x3e, 0x04, 
0xeb, 0xe2, 0xe0, 0xd6, 0x2e, 0x4b, 0xf9, 0xc9, 0xc6, 0x29, 0x91, 0x02, 
0xdf, 0x0b, 0x75, 0xf2, 0x19, 0xf0, 0xa4, 0xe2, 0x2e, 0x63, 0x15, 0xa9, 
0xd1, 0x13, 0x9f, 0xdd, 0xe6, 0x02, 0x56, 0x15, 0x0f, 0xdb, 0xa8, 0xd9, 
0x40, 0x50, 0xf4, 0x9c, 0xd5, 0x16, 0x81, 0xe5, 0x32, 0xd3, 0x4d, 0x11, 
0xe0, 0xd4, 0xb6, 0xf0, 0x41, 0x68, 0x19, 0xbe, 0x43, 0xfe, 0x49, 0xdc, 
0x38, 0x3a, 0x3b, 0xf0, 0x03, 0xe1, 0x28, 0xf0, 0x19, 0x16, 0xfa, 0x6e, 
0x62, 0x5e, 0x75, 0x1d, 0x1b, 0x33, 0x52, 0x04, 0x33, 0x18, 0x50, 0x20, 
0x1c, 0x12, 0x03, 0x60, 0x60, 0x3c, 0x5f, 0xfd, 0x3f, 0x19, 0x5e, 0xfe, 
0x30, 0x0a, 0x47, 0x28, 0x59, 0x1e, 0x0d, 0x57, 0x36, 0x0c, 0x70, 0xf5, 
0x3b, 0x0d, 0x3f, 0xfb, 0x1c, 0x0b, 0x36, 0xf4, 0x0d, 0x20, 0xf3, 0x7e, 
0x57, 0x30, 0x57, 0x11, 0x4c, 0x17, 0x2c, 0x18, 0x2e, 0x12, 0x4b, 0x0b, 
0x46, 0x2b, 0x15, 0x60, 0x4d, 0x50, 0x7f, 0x2b, 0x49, 0x2d, 0x5d, 0xf9, 
0x07, 0x2c, 0x35, 0x24, 0x5b, 0x23, 0xf9, 0x74, 0x46, 0xf8, 0x59, 0x01, 
0x2f, 0xfe, 0x2c, 0xfc, 0xf2, 0xfd, 0x4a, 0x13, 0x06, 0xee, 0x16, 0x6e, 
0x4b, 0x61, 0x5f, 0x14, 0x50, 0x36, 0x38, 0xfa, 0x1a, 0xef, 0x48, 0xfa, 
0x51, 0x18, 0x06, 0x66, 0x52, 0x49, 0x61, 0x20, 0x3b, 0x24, 0x4e, 0x14, 
0x3d, 0x09, 0x5e, 0xfa, 0x46, 0x2c, 0x02, 0x59, 0x9e, 0xfa, 0xff, 0xff, 
0x04, 0x00, 0x00, 0x00, 0x80, 0x00, 0x00, 0x00, 0x99, 0xec, 0xff, 0xff, 
0xb2, 0x24, 0x00, 0x00, 0x5e, 0xb2, 0xff, 0xff, 0xd9, 0xe2, 0xff, 0xff, 
0x5f, 0xde, 0xff, 0xff, 0x26, 0x1f, 0x00, 0x00, 0xc0, 0xe6, 0xff, 0xff, 
0x3a, 0xd7, 0xff, 0xff, 0x44, 0x10, 0x00, 0x00, 0x37, 0xde, 0xff, 0xff, 
0x83, 0xef, 0xff, 0xff, 0x43, 0xeb, 0xff, 0xff, 0x27, 0x08, 0x00, 0x00, 
0x6b, 0x34, 0x00, 0x00, 0x6e, 0xdd, 0xff, 0xff, 0x8d, 0x13, 0x00, 0x00, 
0x91, 0xb9, 0xff, 0xff, 0x23, 0xe7, 0xff, 0xff, 0x21, 0xe8, 0xff, 0xff, 
0x43, 0x11, 0x00, 0x00, 0xa6, 0xed, 0xff, 0xff, 0x85, 0x2a, 0x00, 0x00, 
0x47, 0xdd, 0xff, 0xff, 0x8e, 0x1e, 0x00, 0x00, 0x4f, 0xe6, 0xff, 0xff, 
0x67, 0x13, 0x00, 0x00, 0x50, 0xec, 0xff, 0xff, 0xc0, 0xff, 0xff, 0xff, 
0x2c, 0xeb, 0xff, 0xff, 0xed, 0x10, 0x00, 0x00, 0xf6, 0x32, 0x00, 0x00, 
0x11, 0xd8, 0xff, 0xff, 0x2a, 0xfb, 0xff, 0xff, 0x04, 0x00, 0x00, 0x00, 
0x00, 0x04, 0x00, 0x00, 0x37, 0xb5, 0x02, 0x0a, 0xc0, 0xd2, 0x3c, 0xe9, 
0xda, 0x41, 0x22, 0x1e, 0xbf, 0xb0, 0x0f, 0x49, 0xe1, 0x4c, 0xe0, 0xe8, 
0x13, 0xd9, 0xd2, 0x43, 0x3d, 0xba, 0x54, 0xdb, 0xdb, 0x08, 0x81, 0xde, 
0x32, 0x30, 0xdb, 0xed, 0x3b, 0xda, 0x0e, 0xe1, 0x8c, 0x14, 0xfa, 0x26, 
0xc1, 0x81, 0x2b, 0xab, 0x2a, 0x0b, 0x32, 0xbb, 0x5f, 0xe2, 0x17, 0x26, 
0x38, 0x16, 0x23, 0x35, 0x4e, 0x00, 0xc8, 0x0a, 0x46, 0x20, 0xd7, 0x34, 
0x1d, 0xf8, 0x29, 0xf9, 0x81, 0x33, 0xe3, 0x18, 0xcd, 0xb4, 0x0e, 0xce, 
0x17, 0x50, 0x42, 0xe2, 0x4d, 0xb4, 0x19, 0xfb, 0x0e, 0x1b, 0x33, 0x20, 
0x19, 0xce, 0xbf, 0x29, 0x1c, 0xe9, 0x99, 0x0f, 0x7d, 0x54, 0x3b, 0xcb, 
0xd8, 0x26, 0xd5, 0x3b, 0x8b, 0xd9, 0xfb, 0x0e, 0x13, 0x76, 0x35, 0x4b, 
0xc3, 0x8a, 0xde, 0x81, 0xa4, 0xc1, 0x8d, 0xd0, 0xe5, 0x32, 0xdc, 0x90, 
0xf9, 0x13, 0xf8, 0xf3, 0xf2, 0x2d, 0x06, 0x10, 0x7f, 0x06, 0x00, 0xe3, 
0x27, 0x3b, 0xf0, 0x47, 0xf3, 0xbe, 0xcb, 0x19, 0xd6, 0x28, 0xf1, 0x00, 
0xe4, 0x16, 0xe4, 0xe2, 0xf0, 0x39, 0x3f, 0xe8, 0x6c, 0xba, 0xdb, 0x17, 
0xef, 0x81, 0x79, 0x08, 0x35, 0xae, 0x37, 0xc9, 0x3c, 0x8d, 0xd5, 0x2e, 
0x68, 0x8f, 0x07, 0xd0, 0xe6, 0x5a, 0x12, 0x90, 0x3a, 0xe6, 0x3a, 0x0c, 
0xa9, 0xa3, 0xf9, 0x1a, 0x16, 0x0b, 0xdb, 0xa8, 0x5b, 0x44, 0xbf, 0xb5, 
0xa5, 0xac, 0xa5, 0x1d, 0x95, 0xce, 0x16, 0x30, 0x94, 0xd5, 0xb4, 0xa8, 
0x22, 0xf2, 0xbd, 0xcf, 0xe6, 0xb2, 0x78, 0xd6, 0x48, 0x78, 0x9b, 0x81, 
0xbd, 0x16, 0xf2, 0x10, 0xe7, 0x12, 0xfe, 0x02, 0x7f, 0xff, 0x16, 0xdd, 
0x18, 0x28, 0xd9, 0x0d, 0xff, 0x01, 0xef, 0x14, 0xcf, 0x43, 0x01, 0x11, 
0x17, 0xfa, 0xf1, 0xea, 0xfa, 0x0e, 0x24, 0xce, 0xb2, 0x28, 0xe1, 0xea, 
0x05, 0x34, 0x01, 0xf8, 0x7f, 0x16, 0xf3, 0xd9, 0x2a, 0x4b, 0xda, 0x3d, 
0xe0, 0xea, 0xbb, 0x0f, 0xed, 0x43, 0x16, 0x0c, 0xed, 0xfa, 0xad, 0xf6, 
0xcf, 0x1f, 0x60, 0xe8, 0x9a, 0x5f, 0xfd, 0x81, 0xc1, 0x09, 0xa6, 0x4f, 
0x6a, 0x27, 0xb3, 0x37, 0xfe, 0xc9, 0x11, 0xb4, 0xc1, 0x2f, 0x9d, 0xe7, 
0x0b, 0xb5, 0xd4, 0xf2, 0xda, 0xe0, 0x14, 0xfe, 0x89, 0xbc, 0xd2, 0xb4, 
0xbe, 0x28, 0x15, 0xdb, 0xfc, 0x11, 0x19, 0x24, 0x7f, 0xe6, 0xd6, 0x12, 
0x01, 0x6c, 0xbb, 0x21, 0x18, 0xe7, 0xc8, 0x1c, 0xd5, 0x41, 0x1c, 0xe9, 
0x1c, 0xfd, 0xab, 0x08, 0xeb, 0x24, 0x50, 0xca, 0x30, 0x01, 0x1a, 0x14, 
0x1e, 0xe6, 0x13, 0x0e, 0x81, 0xf8, 0x19, 0x2e, 0xd0, 0x9e, 0x24, 0xe4, 
0x03, 0x41, 0x35, 0xe4, 0x41, 0xb8, 0xf1, 0x02, 0x26, 0x1a, 0x3a, 0x2a, 
0x21, 0xdd, 0xa9, 0x0e, 0x2b, 0x1c, 0x1d, 0x1b, 0x17, 0xba, 0xfc, 0xf4, 
0x81, 0x2e, 0x22, 0x2b, 0xd9, 0xc4, 0x2d, 0xbc, 0xe5, 0x11, 0x29, 0xfb, 
0x1d, 0xb6, 0xe6, 0xfa, 0x0c, 0x23, 0x11, 0x31, 0x33, 0xc6, 0xae, 0x38, 
0x0c, 0x1e, 0x17, 0xb3, 0xf4, 0x50, 0xbc, 0xe3, 0x7f, 0xc7, 0xf9, 0xeb, 
0x51, 0x23, 0xe0, 0x5d, 0x0a, 0xf2, 0xcf, 0x45, 0xe8, 0x58, 0x27, 0xe3, 
0xda, 0x1f, 0xe1, 0xf0, 0xce, 0x36, 0x21, 0xd2, 0x7b, 0xec, 0x0c, 0x76, 
0xbc, 0xdf, 0x2b, 0xd7, 0x3f, 0x52, 0xec, 0xe4, 0x30, 0x3f, 0xc6, 0x98, 
0x52, 0xca, 0x39, 0xf3, 0xeb, 0x81, 0xf2, 0xd2, 0xd3, 0xfd, 0xd6, 0x40, 
0xe9, 0x52, 0xd5, 0x5a, 0x69, 0x8a, 0xc7, 0x1a, 0x89, 0x81, 0xe1, 0xe7, 
0x74, 0xaa, 0x82, 0xb1, 0x75, 0x88, 0x1c, 0xe9, 0x88, 0xfe, 0xd8, 0xcc, 
0xe0, 0xa3, 0x53, 0x66, 0x06, 0x96, 0xbe, 0xa5, 0x1f, 0x00, 0x27, 0x45, 
0x5c, 0xfe, 0x7f, 0xf5, 0x01, 0x3f, 0x00, 0x7b, 0x49, 0x4a, 0x41, 0x0e, 
0x12, 0xbc, 0xfc, 0x42, 0xc7, 0xe7, 0x29, 0xcf, 0x63, 0xd9, 0xe4, 0xb1, 
0x81, 0xcb, 0xb4, 0xa1, 0x63, 0x2e, 0xe3, 0x4b, 0x39, 0x44, 0x20, 0x2a, 
0xb1, 0xc7, 0x13, 0xf6, 0xd3, 0xfa, 0x2a, 0x57, 0x6b, 0xe0, 0xd5, 0x2e, 
0x3a, 0x19, 0x25, 0xdb, 0x81, 0xaa, 0xdf, 0xb4, 0x45, 0xd8, 0x38, 0xd7, 
0x44, 0x15, 0x26, 0xa7, 0x3f, 0x1e, 0x1b, 0xf5, 0xf4, 0x2f, 0x18, 0xe7, 
0xb2, 0x36, 0xb4, 0x48, 0xb4, 0xa5, 0xe3, 0xc1, 0xe9, 0xe1, 0x2c, 0x4d, 
0x22, 0x9f, 0x31, 0xe1, 0x2c, 0x9f, 0x5a, 0x44, 0xea, 0x44, 0x81, 0x09, 
0xdd, 0xa7, 0xf0, 0xea, 0xf0, 0x45, 0xf4, 0x4b, 0x29, 0x96, 0x69, 0x1d, 
0x40, 0xea, 0x44, 0x2f, 0xcf, 0x81, 0x29, 0x5d, 0xba, 0xff, 0x30, 0xf2, 
0x23, 0xe2, 0x54, 0x2c, 0x85, 0x91, 0x57, 0x4c, 0xce, 0x1b, 0x03, 0xdc, 
0xe8, 0x31, 0xd8, 0xf8, 0x7f, 0xc7, 0xeb, 0x11, 0x30, 0x50, 0xdc, 0x2c, 
0x08, 0x00, 0xc9, 0x27, 0xd9, 0x1b, 0xea, 0x1a, 0xe8, 0x17, 0xc5, 0x1b, 
0xc2, 0x08, 0x2c, 0xdb, 0xda, 0x12, 0xe6, 0xe3, 0xd7, 0x3d, 0xbd, 0xec, 
0x7f, 0xfc, 0xee, 0x0d, 0x22, 0x5f, 0xf4, 0x40, 0xef, 0xcc, 0xce, 0x26, 
0xef, 0x2c, 0xf3, 0x1d, 0xdc, 0x08, 0xe0, 0x02, 0xa3, 0x3e, 0x55, 0xf1, 
0xc5, 0xfa, 0xed, 0xf4, 0xe2, 0x24, 0xf8, 0x1e, 0x7f, 0xfe, 0x00, 0xe3, 
0x14, 0x43, 0xd5, 0x38, 0x11, 0xe8, 0xe4, 0x28, 0xd9, 0x27, 0x10, 0x11, 
0xde, 0x16, 0xed, 0x1a, 0xeb, 0x30, 0x21, 0xf5, 0x9c, 0x57, 0x40, 0xd5, 
0xba, 0xa4, 0x3d, 0x70, 0x57, 0x18, 0x73, 0xf3, 0x98, 0x1e, 0xa9, 0xbd, 
0x43, 0x12, 0xcb, 0x43, 0x26, 0x55, 0xe6, 0xc1, 0x17, 0x81, 0xaa, 0xce, 
0x00, 0x11, 0xde, 0xe3, 0x51, 0x94, 0xfa, 0xdb, 0xdb, 0xea, 0xc2, 0xdf, 
0x70, 0xfc, 0xf4, 0x21, 0x23, 0xad, 0x9b, 0xab, 0x42, 0xf8, 0x65, 0xcd, 
0x4a, 0x04, 0x08, 0x5b, 0x81, 0x0e, 0xf0, 0x8d, 0x67, 0x57, 0x29, 0x59, 
0xcd, 0x22, 0xf2, 0xc9, 0xee, 0x2d, 0xd4, 0x09, 0x7f, 0xe9, 0xf4, 0x13, 
0x2b, 0x3f, 0xc6, 0x36, 0x23, 0x00, 0xee, 0x37, 0xd9, 0x2f, 0x0b, 0xf9, 
0x04, 0x01, 0xdf, 0xea, 0xfa, 0x44, 0x50, 0xdd, 0x30, 0x36, 0x06, 0xa0, 
0xa2, 0x0a, 0xd8, 0xfb, 0xba, 0x96, 0xf8, 0x22, 0xcd, 0x2b, 0x81, 0xec, 
0x1e, 0x1f, 0xa8, 0xeb, 0x2d, 0x12, 0x27, 0x96, 0xff, 0x08, 0x2a, 0x41, 
0x09, 0x28, 0x1e, 0xba, 0xe5, 0x0f, 0xd8, 0x06, 0xfc, 0x4a, 0xd2, 0xf8, 
0x7f, 0xdf, 0xeb, 0x0a, 0x31, 0x51, 0xcc, 0x23, 0x1a, 0xf0, 0x14, 0x4f, 
0xc6, 0x2f, 0x07, 0xf4, 0xc7, 0x18, 0xd5, 0xe3, 0x13, 0x51, 0x4b, 0x07, 
0x08, 0x2f, 0xc3, 0x98, 0x3e, 0xe9, 0xed, 0x6c, 0x94, 0x95, 0xe1, 0x44, 
0xa5, 0xf5, 0xe8, 0xeb, 0xa6, 0xb7, 0xe5, 0xf7, 0x96, 0x30, 0xbb, 0x81, 
0xda, 0xc6, 0x93, 0xfb, 0x3d, 0x50, 0x34, 0x1e, 0x93, 0x13, 0x06, 0xfb, 
0x84, 0x30, 0x76, 0x5a, 0xf7, 0x34, 0x4c, 0x4f, 0x76, 0xd0, 0xdc, 0x29, 
0x6d, 0x82, 0x83, 0x81, 0x0f, 0x07, 0x32, 0xe6, 0x2d, 0xf3, 0x9d, 0x72, 
0xd5, 0xeb, 0xd0, 0xc8, 0x64, 0x6a, 0x3d, 0x4c, 0x92, 0x94, 0xaa, 0xde, 
0x99, 0x95, 0x84, 0xd4, 0xf2, 0x64, 0x5f, 0xce, 0x8d, 0x21, 0x05, 0x6b, 
0xa8, 0x22, 0xca, 0x81, 0x4e, 0xba, 0x15, 0xfc, 0x22, 0xd0, 0x53, 0xd0, 
0x45, 0x1b, 0xe6, 0x13, 0x35, 0xa6, 0x25, 0xf5, 0x81, 0x2b, 0x1a, 0xfa, 
0xd0, 0xd7, 0x26, 0xa3, 0xf5, 0x49, 0x12, 0xcc, 0x4d, 0xe6, 0x11, 0xea, 
0x30, 0x3a, 0x35, 0xe8, 0x19, 0xf0, 0x86, 0x41, 0x36, 0xff, 0xff, 0xff, 
0x04, 0x00, 0x00, 0x00, 0x80, 0x00, 0x00, 0x00, 0xc9, 0xf5, 0xff, 0xff, 
0xcc, 0xfa, 0xff, 0xff, 0xca, 0xfe, 0xff, 0xff, 0x95, 0xf7, 0xff, 0xff, 
0x42, 0x06, 0x00, 0x00, 0x05, 0xf0, 0xff, 0xff, 0x5e, 0xf6, 0xff, 0xff, 
0xfe, 0x0d, 0x00, 0x00, 0x92, 0x12, 0x00, 0x00, 0xc1, 0xf7, 0xff, 0xff, 
0x53, 0x1a, 0x00, 0x00, 0x52, 0x04, 0x00, 0x00, 0x3a, 0xf5, 0xff, 0xff, 
0x90, 0x11, 0x00, 0x00, 0x30, 0xf5, 0xff, 0xff, 0x15, 0xf0, 0xff, 0xff, 
0x8a, 0xdc, 0xff, 0xff, 0x4d, 0xe4, 0xff, 0xff, 0x9e, 0xfa, 0xff, 0xff, 
0x5a, 0xdf, 0xff, 0xff, 0x4a, 0x10, 0x00, 0x00, 0x01, 0x17, 0x00, 0x00, 
0x5e, 0x0c, 0x00, 0x00, 0x15, 0xfd, 0xff, 0xff, 0xba, 0xec, 0xff, 0xff, 
0x89, 0x0f, 0x00, 0x00, 0x68, 0xfa, 0xff, 0xff, 0x4a, 0xf8, 0xff, 0xff, 
0xb3, 0xea, 0xff, 0xff, 0x5e, 0xf9, 0xff, 0xff, 0x23, 0xdf, 0xff, 0xff, 
0x1c, 0xf7, 0xff, 0xff, 0xc2, 0xff, 0xff, 0xff, 0x04, 0x00, 0x00, 0x00, 
0x20, 0x00, 0x00, 0x00, 0x3a, 0x28, 0x48, 0x06, 0x98, 0x0e, 0x3b, 0xa2, 
0x81, 0xd7, 0x9d, 0x6a, 0x27, 0xa2, 0x0c, 0x00, 0x35, 0x1c, 0x24, 0x00, 
0x81, 0xa5, 0x8e, 0x10, 0xf1, 0x9f, 0x4c, 0x87, 0xbc, 0xbe, 0xdb, 0x50, 
0xee, 0xff, 0xff, 0xff, 0x04, 0x00, 0x00, 0x00, 0x04, 0x00, 0x00, 0x00, 
0xf7, 0xfe, 0xff, 0xff, 0x00, 0x00, 0x06, 0x00, 0x08, 0x00, 0x04, 0x00, 
0x06, 0x00, 0x00, 0x00, 0x04, 0x00, 0x00, 0x00, 0x08, 0x00, 0x00, 0x00, 
0x01, 0x00, 0x00, 0x00, 0x02, 0x00, 0x00, 0x00, 0x4c, 0xee, 0xff, 0xff, 
0x50, 0xee, 0xff, 0xff, 0x0f, 0x00, 0x00, 0x00, 0x4d, 0x4c, 0x49, 0x52, 
0x20, 0x43, 0x6f, 0x6e, 0x76, 0x65, 0x72, 0x74, 0x65, 0x64, 0x2e, 0x00, 
0x01, 0x00, 0x00, 0x00, 0x14, 0x00, 0x00, 0x00, 0x00, 0x00, 0x0e, 0x00, 
0x18, 0x00, 0x14, 0x00, 0x10, 0x00, 0x0c, 0x00, 0x08, 0x00, 0x04, 0x00, 
0x0e, 0x00, 0x00, 0x00, 0x14, 0x00, 0x00, 0x00, 0x1c, 0x00, 0x00, 0x00, 
0xfc, 0x01, 0x00, 0x00, 0x00, 0x02, 0x00, 0x00, 0x04, 0x02, 0x00, 0x00, 
0x04, 0x00, 0x00, 0x00, 0x6d, 0x61, 0x69, 0x6e, 0x00, 0x00, 0x00, 0x00, 
0x07, 0x00, 0x00, 0x00, 0x98, 0x01, 0x00, 0x00, 0x34, 0x01, 0x00, 0x00, 
0xe4, 0x00, 0x00, 0x00, 0xb0, 0x00, 0x00, 0x00, 0x6c, 0x00, 0x00, 0x00, 
0x34, 0x00, 0x00, 0x00, 0x10, 0x00, 0x00, 0x00, 0x00, 0x00, 0x0a, 0x00, 
0x10, 0x00, 0x0c, 0x00, 0x08, 0x00, 0x04, 0x00, 0x0a, 0x00, 0x00, 0x00, 
0x0c, 0x00, 0x00, 0x00, 0x10, 0x00, 0x00, 0x00, 0x04, 0x00, 0x00, 0x00, 
0x01, 0x00, 0x00, 0x00, 0x10, 0x00, 0x00, 0x00, 0x01, 0x00, 0x00, 0x00, 
0x0f, 0x00, 0x00, 0x00, 0x1e, 0xff, 0xff, 0xff, 0x14, 0x00, 0x00, 0x00, 
0x00, 0x00, 0x00, 0x08, 0x10, 0x00, 0x00, 0x00, 0x14, 0x00, 0x00, 0x00, 
0x03, 0x00, 0x00, 0x00, 0x08, 0xef, 0xff, 0xff, 0x01, 0x00, 0x00, 0x00, 
0x0f, 0x00, 0x00, 0x00, 0x03, 0x00, 0x00, 0x00, 0x0e, 0x00, 0x00, 0x00, 
0x03, 0x00, 0x00, 0x00, 0x02, 0x00, 0x00, 0x00, 0x52, 0xff, 0xff, 0xff, 
0x1c, 0x00, 0x00, 0x00, 0x00, 0x00, 0x00, 0x08, 0x1c, 0x00, 0x00, 0x00, 
0x20, 0x00, 0x00, 0x00, 0x03, 0x00, 0x00, 0x00, 0x00, 0x00, 0x06, 0x00, 
0x08, 0x00, 0x07, 0x00, 0x06, 0x00, 0x00, 0x00, 0x00, 0x00, 0x00, 0x01, 
0x01, 0x00, 0x00, 0x00, 0x0e, 0x00, 0x00, 0x00, 0x03, 0x00, 0x00, 0x00, 
0x0d, 0x00, 0x00, 0x00, 0x05, 0x00, 0x00, 0x00, 0x04, 0x00, 0x00, 0x00, 
0x92, 0xff, 0xff, 0xff, 0x14, 0x00, 0x00, 0x00, 0x00, 0x00, 0x00, 0x1b, 
0x10, 0x00, 0x00, 0x00, 0x14, 0x00, 0x00, 0x00, 0x02, 0x00, 0x00, 0x00, 
0x7c, 0xef, 0xff, 0xff, 0x01, 0x00, 0x00, 0x00, 0x0d, 0x00, 0x00, 0x00, 
0x02, 0x00, 0x00, 0x00, 0x0c, 0x00, 0x00, 0x00, 0x01, 0x00, 0x00, 0x00, 
0x62, 0xff, 0xff, 0xff, 0x10, 0x00, 0x00, 0x00, 0x00, 0x00, 0x00, 0x01, 
0x18, 0x00, 0x00, 0x00, 0x1c, 0x00, 0x00, 0x00, 0x54, 0xff, 0xff, 0xff, 
0x00, 0x00, 0x00, 0x01, 0x01, 0x00, 0x00, 0x00, 0x01, 0x00, 0x00, 0x00, 
0x01, 0x00, 0x00, 0x00, 0x0c, 0x00, 0x00, 0x00, 0x03, 0x00, 0x00, 0x00, 
0x0b, 0x00, 0x00, 0x00, 0x07, 0x00, 0x00, 0x00, 0x06, 0x00, 0x00, 0x00, 
0x00, 0x00, 0x0e, 0x00, 0x1a, 0x00, 0x14, 0x00, 0x10, 0x00, 0x0c, 0x00, 
0x0b, 0x00, 0x04, 0x00, 0x0e, 0x00, 0x00, 0x00, 0x24, 0x00, 0x00, 0x00, 
0x00, 0x00, 0x00, 0x05, 0x34, 0x00, 0x00, 0x00, 0x38, 0x00, 0x00, 0x00, 
0x01, 0x00, 0x00, 0x00, 0x00, 0x00, 0x0e, 0x00, 0x18, 0x00, 0x17, 0x00, 
0x10, 0x00, 0x0c, 0x00, 0x08, 0x00, 0x04, 0x00, 0x0e, 0x00, 0x00, 0x00, 
0x02, 0x00, 0x00, 0x00, 0x02, 0x00, 0x00, 0x00, 0x02, 0x00, 0x00, 0x00, 
0x02, 0x00, 0x00, 0x00, 0x00, 0x00, 0x00, 0x01, 0x01, 0x00, 0x00, 0x00, 
0x0b, 0x00, 0x00, 0x00, 0x01, 0x00, 0x00, 0x00, 0x0a, 0x00, 0x00, 0x00, 
0x00, 0x00, 0x0e, 0x00, 0x14, 0x00, 0x00, 0x00, 0x10, 0x00, 0x0c, 0x00, 
0x0b, 0x00, 0x04, 0x00, 0x0e, 0x00, 0x00, 0x00, 0x1c, 0x00, 0x00, 0x00, 
0x00, 0x00, 0x00, 0x01, 0x24, 0x00, 0x00, 0x00, 0x28, 0x00, 0x00, 0x00, 
0x0c, 0x00, 0x10, 0x00, 0x00, 0x00, 0x0c, 0x00, 0x08, 0x00, 0x07, 0x00, 
0x0c, 0x00, 0x00, 0x00, 0x00, 0x00, 0x00, 0x01, 0x01, 0x00, 0x00, 0x00, 
0x01, 0x00, 0x00, 0x00, 0x01, 0x00, 0x00, 0x00, 0x0a, 0x00, 0x00, 0x00, 
0x03, 0x00, 0x00, 0x00, 0x00, 0x00, 0x00, 0x00, 0x09, 0x00, 0x00, 0x00, 
0x08, 0x00, 0x00, 0x00, 0x01, 0x00, 0x00, 0x00, 0x10, 0x00, 0x00, 0x00, 
0x01, 0x00, 0x00, 0x00, 0x00, 0x00, 0x00, 0x00, 0x11, 0x00, 0x00, 0x00, 
0xa0, 0x0f, 0x00, 0x00, 0x44, 0x0f, 0x00, 0x00, 0xcc, 0x0e, 0x00, 0x00, 
0x68, 0x0e, 0x00, 0x00, 0x94, 0x0c, 0x00, 0x00, 0xb8, 0x0a, 0x00, 0x00, 
0xe4, 0x08, 0x00, 0x00, 0x00, 0x07, 0x00, 0x00, 0xec, 0x05, 0x00, 0x00, 
0xc8, 0x04, 0x00, 0x00, 0xf4, 0x03, 0x00, 0x00, 0x58, 0x03, 0x00, 0x00, 
0x64, 0x02, 0x00, 0x00, 0xd0, 0x01, 0x00, 0x00, 0x1c, 0x01, 0x00, 0x00, 
0x80, 0x00, 0x00, 0x00, 0x04, 0x00, 0x00, 0x00, 0xba, 0xf0, 0xff, 0xff, 
0x00, 0x00, 0x00, 0x01, 0x18, 0x00, 0x00, 0x00, 0x20, 0x00, 0x00, 0x00, 
0x3c, 0x00, 0x00, 0x00, 0x11, 0x00, 0x00, 0x00, 0x00, 0x00, 0x00, 0x09, 
0x50, 0x00, 0x00, 0x00, 0x02, 0x00, 0x00, 0x00, 0xff, 0xff, 0xff, 0xff, 
0x01, 0x00, 0x00, 0x00, 0x9c, 0xf0, 0xff, 0xff, 0x08, 0x00, 0x00, 0x00, 
0x10, 0x00, 0x00, 0x00, 0x01, 0x00, 0x00, 0x00, 0x80, 0xff, 0xff, 0xff, 
0xff, 0xff, 0xff, 0xff, 0x01, 0x00, 0x00, 0x00, 0x00, 0x00, 0x80, 0x3b, 
0x1b, 0x00, 0x00, 0x00, 0x53, 0x74, 0x61, 0x74, 0x65, 0x66, 0x75, 0x6c, 
0x50, 0x61, 0x72, 0x74, 0x69, 0x74, 0x69, 0x6f, 0x6e, 0x65, 0x64, 0x43, 
0x61, 0x6c, 0x6c, 0x5f, 0x31, 0x3a, 0x30, 0x00, 0x02, 0x00, 0x00, 0x00, 
0x01, 0x00, 0x00, 0x00, 0x01, 0x00, 0x00, 0x00, 0x32, 0xf1, 0xff, 0xff, 
0x00, 0x00, 0x00, 0x01, 0x18, 0x00, 0x00, 0x00, 0x20, 0x00, 0x00, 0x00, 
0x3c, 0x00, 0x00, 0x00, 0x10, 0x00, 0x00, 0x00, 0x00, 0x00, 0x00, 0x09, 
0x70, 0x00, 0x00, 0x00, 0x02, 0x00, 0x00, 0x00, 0xff, 0xff, 0xff, 0xff, 
0x01, 0x00, 0x00, 0x00, 0x14, 0xf1, 0xff, 0xff, 0x08, 0x00, 0x00, 0x00, 
0x10, 0x00, 0x00, 0x00, 0x01, 0x00, 0x00, 0x00, 0x12, 0x00, 0x00, 0x00, 
0x00, 0x00, 0x00, 0x00, 0x01, 0x00, 0x00, 0x00, 0x63, 0x9a, 0x85, 0x3c, 
0x38, 0x00, 0x00, 0x00, 0x73, 0x65, 0x71, 0x75, 0x65, 0x6e, 0x74, 0x69, 
0x61, 0x6c, 0x5f, 0x31, 0x2f, 0x64, 0x65, 0x6e, 0x73, 0x65, 0x5f, 0x31, 
0x5f, 0x32, 0x2f, 0x4d, 0x61, 0x74, 0x4d, 0x75, 0x6c, 0x3b, 0x73, 0x65, 
0x71, 0x75, 0x65, 0x6e, 0x74, 0x69, 0x61, 0x6c, 0x5f, 0x31, 0x2f, 0x64, 
0x65, 0x6e, 0x73, 0x65, 0x5f, 0x31, 0x5f, 0x32, 0x2f, 0x41, 0x64, 0x64, 
0x00, 0x00, 0x00, 0x00, 0x02, 0x00, 0x00, 0x00, 0x01, 0x00, 0x00, 0x00, 
0x01, 0x00, 0x00, 0x00, 0xca, 0xf1, 0xff, 0xff, 0x00, 0x00, 0x00, 0x01, 
0x18, 0x00, 0x00, 0x00, 0x20, 0x00, 0x00, 0x00, 0x3c, 0x00, 0x00, 0x00, 
0x0f, 0x00, 0x00, 0x00, 0x00, 0x00, 0x00, 0x09, 0x88, 0x00, 0x00, 0x00, 
0x02, 0x00, 0x00, 0x00, 0xff, 0xff, 0xff, 0xff, 0x20, 0x00, 0x00, 0x00, 
0xac, 0xf1, 0xff, 0xff, 0x08, 0x00, 0x00, 0x00, 0x10, 0x00, 0x00, 0x00, 
0x01, 0x00, 0x00, 0x00, 0x80, 0xff, 0xff, 0xff, 0xff, 0xff, 0xff, 0xff, 
0x01, 0x00, 0x00, 0x00, 0x22, 0xa1, 0x8a, 0x3b, 0x52, 0x00, 0x00, 0x00, 
0x73, 0x65, 0x71, 0x75, 0x65, 0x6e, 0x74, 0x69, 0x61, 0x6c, 0x5f, 0x31, 
0x2f, 0x64, 0x65, 0x6e, 0x73, 0x65, 0x5f, 0x31, 0x2f, 0x4d, 0x61, 0x74, 
0x4d, 0x75, 0x6c, 0x3b, 0x73, 0x65, 0x71, 0x75, 0x65, 0x6e, 0x74, 0x69, 
0x61, 0x6c, 0x5f, 0x31, 0x2f, 0x64, 0x65, 0x6e, 0x73, 0x65, 0x5f, 0x31, 
0x2f, 0x52, 0x65, 0x6c, 0x75, 0x3b, 0x73, 0x65, 0x71, 0x75, 0x65, 0x6e, 
0x74, 0x69, 0x61, 0x6c, 0x5f, 0x31, 0x2f, 0x64, 0x65, 0x6e, 0x73, 0x65, 
0x5f, 0x31, 0x2f, 0x42, 0x69, 0x61, 0x73, 0x41, 0x64, 0x64, 0x00, 0x00, 
0x02, 0x00, 0x00, 0x00, 0x01, 0x00, 0x00, 0x00, 0x20, 0x00, 0x00, 0x00, 
0x7a, 0xf2, 0xff, 0xff, 0x00, 0x00, 0x00, 0x01, 0x18, 0x00, 0x00, 0x00, 
0x20, 0x00, 0x00, 0x00, 0x40, 0x00, 0x00, 0x00, 0x0e, 0x00, 0x00, 0x00, 
0x00, 0x00, 0x00, 0x09, 0x68, 0x00, 0x00, 0x00, 0x02, 0x00, 0x00, 0x00, 
0xff, 0xff, 0xff, 0xff, 0x20, 0x00, 0x00, 0x00, 0x5c, 0xf2, 0xff, 0xff, 
0x08, 0x00, 0x00, 0x00, 0x14, 0x00, 0x00, 0x00, 0x01, 0x00, 0x00, 0x00, 
0x80, 0xff, 0xff, 0xff, 0xff, 0xff, 0xff, 0xff, 0x00, 0x00, 0x00, 0x00, 
0x01, 0x00, 0x00, 0x00, 0xa7, 0x58, 0x0f, 0x3b, 0x2c, 0x00, 0x00, 0x00, 
0x73, 0x65, 0x71, 0x75, 0x65, 0x6e, 0x74, 0x69, 0x61, 0x6c, 0x5f, 0x31, 
0x2f, 0x67, 0x6c, 0x6f, 0x62, 0x61, 0x6c, 0x5f, 0x61, 0x76, 0x65, 0x72, 
0x61, 0x67, 0x65, 0x5f, 0x70, 0x6f, 0x6f, 0x6c, 0x69, 0x6e, 0x67, 0x32, 
0x64, 0x5f, 0x31, 0x2f, 0x4d, 0x65, 0x61, 0x6e, 0x00, 0x00, 0x00, 0x00, 
0x02, 0x00, 0x00, 0x00, 0x01, 0x00, 0x00, 0x00, 0x20, 0x00, 0x00, 0x00, 
0x0a, 0xf3, 0xff, 0xff, 0x00, 0x00, 0x00, 0x01, 0x18, 0x00, 0x00, 0x00, 
0x28, 0x00, 0x00, 0x00, 0x44, 0x00, 0x00, 0x00, 0x0d, 0x00, 0x00, 0x00, 
0x00, 0x00, 0x00, 0x09, 0xc0, 0x00, 0x00, 0x00, 0x04, 0x00, 0x00, 0x00, 
0xff, 0xff, 0xff, 0xff, 0x30, 0x00, 0x00, 0x00, 0x30, 0x00, 0x00, 0x00, 
0x20, 0x00, 0x00, 0x00, 0xf4, 0xf2, 0xff, 0xff, 0x08, 0x00, 0x00, 0x00, 
0x10, 0x00, 0x00, 0x00, 0x01, 0x00, 0x00, 0x00, 0x80, 0xff, 0xff, 0xff, 
0xff, 0xff, 0xff, 0xff, 0x01, 0x00, 0x00, 0x00, 0xfc, 0x65, 0x49, 0x3c, 
0x80, 0x00, 0x00, 0x00, 0x73, 0x65, 0x71, 0x75, 0x65, 0x6e, 0x74, 0x69, 
0x61, 0x6c, 0x5f, 0x31, 0x2f, 0x63, 0x6f, 0x6e, 0x76, 0x32, 0x64, 0x5f, 
0x31, 0x5f, 0x32, 0x2f, 0x52, 0x65, 0x6c, 0x75, 0x3b, 0x73, 0x65, 0x71, 
0x75, 0x65, 0x6e, 0x74, 0x69, 0x61, 0x6c, 0x5f, 0x31, 0x2f, 0x63, 0x6f, 
0x6e, 0x76, 0x32, 0x64, 0x5f, 0x31, 0x5f, 0x32, 0x2f, 0x42, 0x69, 0x61, 
0x73, 0x41, 0x64, 0x64, 0x3b, 0x73, 0x65, 0x71, 0x75, 0x65, 0x6e, 0x74, 
0x69, 0x61, 0x6c, 0x5f, 0x31, 0x2f, 0x63, 0x6f, 0x6e, 0x76, 0x32, 0x64, 
0x5f, 0x31, 0x5f, 0x32, 0x2f, 0x63, 0x6f, 0x6e, 0x76, 0x6f, 0x6c, 0x75, 
0x74, 0x69, 0x6f, 0x6e, 0x3b, 0x73, 0x65, 0x71, 0x75, 0x65, 0x6e, 0x74, 
0x69, 0x61, 0x6c, 0x5f, 0x31, 0x2f, 0x63, 0x6f, 0x6e, 0x76, 0x32, 0x64, 
0x5f, 0x31, 0x5f, 0x32, 0x2f, 0x53, 0x71, 0x75, 0x65, 0x65, 0x7a, 0x65, 
0x00, 0x00, 0x00, 0x00, 0x04, 0x00, 0x00, 0x00, 0x01, 0x00, 0x00, 0x00, 
0x30, 0x00, 0x00, 0x00, 0x30, 0x00, 0x00, 0x00, 0x20, 0x00, 0x00, 0x00, 
0xfa, 0xf3, 0xff, 0xff, 0x00, 0x00, 0x00, 0x01, 0x18, 0x00, 0x00, 0x00, 
0x28, 0x00, 0x00, 0x00, 0x48, 0x00, 0x00, 0x00, 0x0c, 0x00, 0x00, 0x00, 
0x00, 0x00, 0x00, 0x09, 0x68, 0x00, 0x00, 0x00, 0x04, 0x00, 0x00, 0x00, 
0xff, 0xff, 0xff, 0xff, 0x30, 0x00, 0x00, 0x00, 0x30, 0x00, 0x00, 0x00, 
0x10, 0x00, 0x00, 0x00, 0xe4, 0xf3, 0xff, 0xff, 0x08, 0x00, 0x00, 0x00, 
0x14, 0x00, 0x00, 0x00, 0x01, 0x00, 0x00, 0x00, 0x80, 0xff, 0xff, 0xff, 
0xff, 0xff, 0xff, 0xff, 0x00, 0x00, 0x00, 0x00, 0x01, 0x00, 0x00, 0x00, 
0x54, 0xba, 0x28, 0x3b, 0x26, 0x00, 0x00, 0x00, 0x73, 0x65, 0x71, 0x75, 
0x65, 0x6e, 0x74, 0x69, 0x61, 0x6c, 0x5f, 0x31, 0x2f, 0x6d, 0x61, 0x78, 
0x5f, 0x70, 0x6f, 0x6f, 0x6c, 0x69, 0x6e, 0x67, 0x32, 0x64, 0x5f, 0x31, 
0x2f, 0x4d, 0x61, 0x78, 0x50, 0x6f, 0x6f, 0x6c, 0x32, 0x64, 0x00, 0x00, 
0x04, 0x00, 0x00, 0x00, 0x01, 0x00, 0x00, 0x00, 0x30, 0x00, 0x00, 0x00, 
0x30, 0x00, 0x00, 0x00, 0x10, 0x00, 0x00, 0x00, 0x92, 0xf4, 0xff, 0xff, 
0x00, 0x00, 0x00, 0x01, 0x18, 0x00, 0x00, 0x00, 0x28, 0x00, 0x00, 0x00, 
0x48, 0x00, 0x00, 0x00, 0x0b, 0x00, 0x00, 0x00, 0x00, 0x00, 0x00, 0x09, 
0xa0, 0x00, 0x00, 0x00, 0x04, 0x00, 0x00, 0x00, 0xff, 0xff, 0xff, 0xff, 
0x60, 0x00, 0x00, 0x00, 0x60, 0x00, 0x00, 0x00, 0x10, 0x00, 0x00, 0x00, 
0x7c, 0xf4, 0xff, 0xff, 0x08, 0x00, 0x00, 0x00, 0x14, 0x00, 0x00, 0x00, 
0x01, 0x00, 0x00, 0x00, 0x80, 0xff, 0xff, 0xff, 0xff, 0xff, 0xff, 0xff, 
0x00, 0x00, 0x00, 0x00, 0x01, 0x00, 0x00, 0x00, 0x54, 0xba, 0x28, 0x3b, 
0x5c, 0x00, 0x00, 0x00, 0x73, 0x65, 0x71, 0x75, 0x65, 0x6e, 0x74, 0x69, 
0x61, 0x6c, 0x5f, 0x31, 0x2f, 0x63, 0x6f, 0x6e, 0x76, 0x32, 0x64, 0x5f, 
0x31, 0x2f, 0x52, 0x65, 0x6c, 0x75, 0x3b, 0x73, 0x65, 0x71, 0x75, 0x65, 
0x6e, 0x74, 0x69, 0x61, 0x6c, 0x5f, 0x31, 0x2f, 0x63, 0x6f, 0x6e, 0x76, 
0x32, 0x64, 0x5f, 0x31, 0x2f, 0x42, 0x69, 0x61, 0x73, 0x41, 0x64, 0x64, 
0x3b, 0x73, 0x65, 0x71, 0x75, 0x65, 0x6e, 0x74, 0x69, 0x61, 0x6c, 0x5f, 
0x31, 0x2f, 0x63, 0x6f, 0x6e, 0x76, 0x32, 0x64, 0x5f, 0x31, 0x2f, 0x63, 
0x6f, 0x6e, 0x76, 0x6f, 0x6c, 0x75, 0x74, 0x69, 0x6f, 0x6e, 0x3b, 0x31, 
0x00, 0x00, 0x00, 0x00, 0x04, 0x00, 0x00, 0x00, 0x01, 0x00, 0x00, 0x00, 
0x60, 0x00, 0x00, 0x00, 0x60, 0x00, 0x00, 0x00, 0x10, 0x00, 0x00, 0x00, 
0xba, 0xf5, 0xff, 0xff, 0x00, 0x00, 0x00, 0x01, 0x14, 0x00, 0x00, 0x00, 
0xe8, 0x00, 0x00, 0x00, 0x0a, 0x00, 0x00, 0x00, 0x00, 0x00, 0x00, 0x09, 
0xf4, 0x00, 0x00, 0x00, 0x34, 0xf5, 0xff, 0xff, 0x08, 0x00, 0x00, 0x00, 
0x8c, 0x00, 0x00, 0x00, 0x10, 0x00, 0x00, 0x00, 0x00, 0x00, 0x00, 0x00, 
0x00, 0x00, 0x00, 0x00, 0x00, 0x00, 0x00, 0x00, 0x00, 0x00, 0x00, 0x00, 
0x00, 0x00, 0x00, 0x00, 0x00, 0x00, 0x00, 0x00, 0x00, 0x00, 0x00, 0x00, 
0x00, 0x00, 0x00, 0x00, 0x00, 0x00, 0x00, 0x00, 0x00, 0x00, 0x00, 0x00, 
0x00, 0x00, 0x00, 0x00, 0x00, 0x00, 0x00, 0x00, 0x00, 0x00, 0x00, 0x00, 
0x00, 0x00, 0x00, 0x00, 0x00, 0x00, 0x00, 0x00, 0x00, 0x00, 0x00, 0x00, 
0x00, 0x00, 0x00, 0x00, 0x00, 0x00, 0x00, 0x00, 0x00, 0x00, 0x00, 0x00, 
0x00, 0x00, 0x00, 0x00, 0x00, 0x00, 0x00, 0x00, 0x00, 0x00, 0x00, 0x00, 
0x00, 0x00, 0x00, 0x00, 0x00, 0x00, 0x00, 0x00, 0x00, 0x00, 0x00, 0x00, 
0x00, 0x00, 0x00, 0x00, 0x00, 0x00, 0x00, 0x00, 0x00, 0x00, 0x00, 0x00, 
0x00, 0x00, 0x00, 0x00, 0x00, 0x00, 0x00, 0x00, 0x00, 0x00, 0x00, 0x00, 
0x00, 0x00, 0x00, 0x00, 0x00, 0x00, 0x00, 0x00, 0x10, 0x00, 0x00, 0x00, 
0x73, 0x2e, 0x70, 0x3b, 0xee, 0xf5, 0xe7, 0x3a, 0x38, 0x14, 0xa4, 0x3b, 
0xc4, 0x49, 0xaf, 0x3a, 0x1f, 0x73, 0xfc, 0x3a, 0xf9, 0x62, 0xbd, 0x3a, 
0x35, 0x7b, 0x0d, 0x3b, 0x58, 0xc5, 0x80, 0x3a, 0xfb, 0x36, 0xeb, 0x3a, 
0x71, 0x34, 0xb5, 0x3a, 0xf6, 0x5c, 0x7d, 0x3b, 0x8d, 0x1a, 0xe2, 0x3a, 
0x2b, 0xee, 0x0f, 0x3b, 0x3b, 0xd0, 0x17, 0x3b, 0x35, 0xdb, 0xf6, 0x3a, 
0xca, 0xf0, 0x84, 0x3b, 0x12, 0x00, 0x00, 0x00, 0x74, 0x66, 0x6c, 0x2e, 
0x70, 0x73, 0x65, 0x75, 0x64, 0x6f, 0x5f, 0x71, 0x63, 0x6f, 0x6e, 0x73, 
0x74, 0x37, 0x00, 0x00, 0x04, 0x00, 0x00, 0x00, 0x10, 0x00, 0x00, 0x00, 
0x03, 0x00, 0x00, 0x00, 0x03, 0x00, 0x00, 0x00, 0x01, 0x00, 0x00, 0x00, 
0xda, 0xf6, 0xff, 0xff, 0x00, 0x00, 0x00, 0x01, 0x14, 0x00, 0x00, 0x00, 
0xe4, 0x00, 0x00, 0x00, 0x09, 0x00, 0x00, 0x00, 0x00, 0x00, 0x00, 0x02, 
0xf0, 0x00, 0x00, 0x00, 0x54, 0xf6, 0xff, 0xff, 0x08, 0x00, 0x00, 0x00, 
0x88, 0x00, 0x00, 0x00, 0x10, 0x00, 0x00, 0x00, 0x00, 0x00, 0x00, 0x00, 
0x00, 0x00, 0x00, 0x00, 0x00, 0x00, 0x00, 0x00, 0x00, 0x00, 0x00, 0x00, 
0x00, 0x00, 0x00, 0x00, 0x00, 0x00, 0x00, 0x00, 0x00, 0x00, 0x00, 0x00, 
0x00, 0x00, 0x00, 0x00, 0x00, 0x00, 0x00, 0x00, 0x00, 0x00, 0x00, 0x00, 
0x00, 0x00, 0x00, 0x00, 0x00, 0x00, 0x00, 0x00, 0x00, 0x00, 0x00, 0x00, 
0x00, 0x00, 0x00, 0x00, 0x00, 0x00, 0x00, 0x00, 0x00, 0x00, 0x00, 0x00, 
0x00, 0x00, 0x00, 0x00, 0x00, 0x00, 0x00, 0x00, 0x00, 0x00, 0x00, 0x00, 
0x00, 0x00, 0x00, 0x00, 0x00, 0x00, 0x00, 0x00, 0x00, 0x00, 0x00, 0x00, 
0x00, 0x00, 0x00, 0x00, 0x00, 0x00, 0x00, 0x00, 0x00, 0x00, 0x00, 0x00, 
0x00, 0x00, 0x00, 0x00, 0x00, 0x00, 0x00, 0x00, 0x00, 0x00, 0x00, 0x00, 
0x00, 0x00, 0x00, 0x00, 0x00, 0x00, 0x00, 0x00, 0x00, 0x00, 0x00, 0x00, 
0x00, 0x00, 0x00, 0x00, 0x10, 0x00, 0x00, 0x00, 0x94, 0x1f, 0x71, 0x37, 
0xce, 0xde, 0xe8, 0x36, 0xf2, 0xb8, 0xa4, 0x37, 0xbe, 0xf9, 0xaf, 0x36, 
0x91, 0x70, 0xfd, 0x36, 0x1b, 0x21, 0xbe, 0x36, 0x3f, 0x09, 0x0e, 0x37, 
0x9f, 0x46, 0x81, 0x36, 0x1f, 0x23, 0xec, 0x36, 0x5c, 0xea, 0xb5, 0x36, 
0x52, 0x5b, 0x7e, 0x37, 0x8b, 0xfd, 0xe2, 0x36, 0xaa, 0x7e, 0x10, 0x37, 
0xa4, 0x68, 0x18, 0x37, 0x09, 0xd3, 0xf7, 0x36, 0x41, 0x76, 0x85, 0x37, 
0x12, 0x00, 0x00, 0x00, 0x74, 0x66, 0x6c, 0x2e, 0x70, 0x73, 0x65, 0x75, 
0x64, 0x6f, 0x5f, 0x71, 0x63, 0x6f, 0x6e, 0x73, 0x74, 0x36, 0x00, 0x00, 
0x01, 0x00, 0x00, 0x00, 0x10, 0x00, 0x00, 0x00, 0xea, 0xf7, 0xff, 0xff, 
0x00, 0x00, 0x00, 0x01, 0x14, 0x00, 0x00, 0x00, 0xa8, 0x01, 0x00, 0x00, 
0x08, 0x00, 0x00, 0x00, 0x00, 0x00, 0x00, 0x09, 0xb4, 0x01, 0x00, 0x00, 
0x64, 0xf7, 0xff, 0xff, 0x08, 0x00, 0x00, 0x00, 0x0c, 0x01, 0x00, 0x00, 
0x20, 0x00, 0x00, 0x00, 0x00, 0x00, 0x00, 0x00, 0x00, 0x00, 0x00, 0x00, 
0x00, 0x00, 0x00, 0x00, 0x00, 0x00, 0x00, 0x00, 0x00, 0x00, 0x00, 0x00, 
0x00, 0x00, 0x00, 0x00, 0x00, 0x00, 0x00, 0x00, 0x00, 0x00, 0x00, 0x00, 
0x00, 0x00, 0x00, 0x00, 0x00, 0x00, 0x00, 0x00, 0x00, 0x00, 0x00, 0x00, 
0x00, 0x00, 0x00, 0x00, 0x00, 0x00, 0x00, 0x00, 0x00, 0x00, 0x00, 0x00, 
0x00, 0x00, 0x00, 0x00, 0x00, 0x00, 0x00, 0x00, 0x00, 0x00, 0x00, 0x00, 
0x00, 0x00, 0x00, 0x00, 0x00, 0x00, 0x00, 0x00, 0x00, 0x00, 0x00, 0x00, 
0x00, 0x00, 0x00, 0x00, 0x00, 0x00, 0x00, 0x00, 0x00, 0x00, 0x00, 0x00, 
0x00, 0x00, 0x00, 0x00, 0x00, 0x00, 0x00, 0x00, 0x00, 0x00, 0x00, 0x00, 
0x00, 0x00, 0x00, 0x00, 0x00, 0x00, 0x00, 0x00, 0x00, 0x00, 0x00, 0x00, 
0x00, 0x00, 0x00, 0x00, 0x00, 0x00, 0x00, 0x00, 0x00, 0x00, 0x00, 0x00, 
0x00, 0x00, 0x00, 0x00, 0x00, 0x00, 0x00, 0x00, 0x00, 0x00, 0x00, 0x00, 
0x00, 0x00, 0x00, 0x00, 0x00, 0x00, 0x00, 0x00, 0x00, 0x00, 0x00, 0x00, 
0x00, 0x00, 0x00, 0x00, 0x00, 0x00, 0x00, 0x00, 0x00, 0x00, 0x00, 0x00, 
0x00, 0x00, 0x00, 0x00, 0x00, 0x00, 0x00, 0x00, 0x00, 0x00, 0x00, 0x00, 
0x00, 0x00, 0x00, 0x00, 0x00, 0x00, 0x00, 0x00, 0x00, 0x00, 0x00, 0x00, 
0x00, 0x00, 0x00, 0x00, 0x00, 0x00, 0x00, 0x00, 0x00, 0x00, 0x00, 0x00, 
0x00, 0x00, 0x00, 0x00, 0x00, 0x00, 0x00, 0x00, 0x00, 0x00, 0x00, 0x00, 
0x00, 0x00, 0x00, 0x00, 0x00, 0x00, 0x00, 0x00, 0x00, 0x00, 0x00, 0x00, 
0x00, 0x00, 0x00, 0x00, 0x00, 0x00, 0x00, 0x00, 0x00, 0x00, 0x00, 0x00, 
0x00, 0x00, 0x00, 0x00, 0x00, 0x00, 0x00, 0x00, 0x00, 0x00, 0x00, 0x00, 
0x00, 0x00, 0x00, 0x00, 0x00, 0x00, 0x00, 0x00, 0x00, 0x00, 0x00, 0x00, 
0x20, 0x00, 0x00, 0x00, 0xc8, 0x24, 0xa1, 0x3b, 0x5d, 0x18, 0x69, 0x3b, 
0x96, 0x7b, 0x8d, 0x3a, 0x5f, 0xa3, 0x8b, 0x3b, 0x4e, 0xa2, 0x8a, 0x3b, 
0x78, 0xce, 0x6b, 0x3b, 0x19, 0x1a, 0x99, 0x3b, 0x39, 0x82, 0xa4, 0x3a, 
0x0b, 0x77, 0xaa, 0x3b, 0x57, 0x61, 0x9c, 0x3b, 0x4b, 0xe5, 0x21, 0x3b, 
0x53, 0x49, 0x9c, 0x3b, 0x9d, 0x38, 0x70, 0x3b, 0x26, 0x2d, 0x8c, 0x3b, 
0x56, 0x5d, 0x99, 0x3b, 0xa3, 0x09, 0x8b, 0x3b, 0x74, 0xa8, 0x86, 0x3a, 
0x97, 0x3e, 0x9d, 0x3b, 0x8c, 0x59, 0xa3, 0x3b, 0x49, 0x68, 0x80, 0x3b, 
0xb8, 0x66, 0x9c, 0x3b, 0x83, 0xe8, 0x93, 0x3b, 0xdd, 0xef, 0x97, 0x3a, 
0x23, 0x63, 0x5c, 0x3b, 0x8d, 0xc2, 0x8d, 0x3b, 0xda, 0xe8, 0x6c, 0x3b, 
0xd8, 0x3d, 0xb0, 0x3b, 0x0a, 0xbb, 0x2e, 0x3b, 0x57, 0x87, 0xb1, 0x3b, 
0x14, 0x79, 0x69, 0x3b, 0xef, 0xee, 0x91, 0x3b, 0x7c, 0x28, 0x7b, 0x3b, 
0x12, 0x00, 0x00, 0x00, 0x74, 0x66, 0x6c, 0x2e, 0x70, 0x73, 0x65, 0x75, 
0x64, 0x6f, 0x5f, 0x71, 0x63, 0x6f, 0x6e, 0x73, 0x74, 0x35, 0x00, 0x00, 
0x04, 0x00, 0x00, 0x00, 0x20, 0x00, 0x00, 0x00, 0x03, 0x00, 0x00, 0x00, 
0x03, 0x00, 0x00, 0x00, 0x10, 0x00, 0x00, 0x00, 0xca, 0xf9, 0xff, 0xff, 
0x00, 0x00, 0x00, 0x01, 0x14, 0x00, 0x00, 0x00, 0xa4, 0x01, 0x00, 0x00, 
0x07, 0x00, 0x00, 0x00, 0x00, 0x00, 0x00, 0x02, 0xb0, 0x01, 0x00, 0x00, 
0x44, 0xf9, 0xff, 0xff, 0x08, 0x00, 0x00, 0x00, 0x08, 0x01, 0x00, 0x00, 
0x20, 0x00, 0x00, 0x00, 0x00, 0x00, 0x00, 0x00, 0x00, 0x00, 0x00, 0x00, 
0x00, 0x00, 0x00, 0x00, 0x00, 0x00, 0x00, 0x00, 0x00, 0x00, 0x00, 0x00, 
0x00, 0x00, 0x00, 0x00, 0x00, 0x00, 0x00, 0x00, 0x00, 0x00, 0x00, 0x00, 
0x00, 0x00, 0x00, 0x00, 0x00, 0x00, 0x00, 0x00, 0x00, 0x00, 0x00, 0x00, 
0x00, 0x00, 0x00, 0x00, 0x00, 0x00, 0x00, 0x00, 0x00, 0x00, 0x00, 0x00, 
0x00, 0x00, 0x00, 0x00, 0x00, 0x00, 0x00, 0x00, 0x00, 0x00, 0x00, 0x00, 
0x00, 0x00, 0x00, 0x00, 0x00, 0x00, 0x00, 0x00, 0x00, 0x00, 0x00, 0x00, 
0x00, 0x00, 0x00, 0x00, 0x00, 0x00, 0x00, 0x00, 0x00, 0x00, 0x00, 0x00, 
0x00, 0x00, 0x00, 0x00, 0x00, 0x00, 0x00, 0x00, 0x00, 0x00, 0x00, 0x00, 
0x00, 0x00, 0x00, 0x00, 0x00, 0x00, 0x00, 0x00, 0x00, 0x00, 0x00, 0x00, 
0x00, 0x00, 0x00, 0x00, 0x00, 0x00, 0x00, 0x00, 0x00, 0x00, 0x00, 0x00, 
0x00, 0x00, 0x00, 0x00, 0x00, 0x00, 0x00, 0x00, 0x00, 0x00, 0x00, 0x00, 
0x00, 0x00, 0x00, 0x00, 0x00, 0x00, 0x00, 0x00, 0x00, 0x00, 0x00, 0x00, 
0x00, 0x00, 0x00, 0x00, 0x00, 0x00, 0x00, 0x00, 0x00, 0x00, 0x00, 0x00, 
0x00, 0x00, 0x00, 0x00, 0x00, 0x00, 0x00, 0x00, 0x00, 0x00, 0x00, 0x00, 
0x00, 0x00, 0x00, 0x00, 0x00, 0x00, 0x00, 0x00, 0x00, 0x00, 0x00, 0x00, 
0x00, 0x00, 0x00, 0x00, 0x00, 0x00, 0x00, 0x00, 0x00, 0x00, 0x00, 0x00, 
0x00, 0x00, 0x00, 0x00, 0x00, 0x00, 0x00, 0x00, 0x00, 0x00, 0x00, 0x00, 
0x00, 0x00, 0x00, 0x00, 0x00, 0x00, 0x00, 0x00, 0x00, 0x00, 0x00, 0x00, 
0x00, 0x00, 0x00, 0x00, 0x00, 0x00, 0x00, 0x00, 0x00, 0x00, 0x00, 0x00, 
0x00, 0x00, 0x00, 0x00, 0x00, 0x00, 0x00, 0x00, 0x00, 0x00, 0x00, 0x00, 
0x00, 0x00, 0x00, 0x00, 0x00, 0x00, 0x00, 0x00, 0x20, 0x00, 0x00, 0x00, 
0xda, 0x6a, 0x54, 0x37, 0xa5, 0xa1, 0x19, 0x37, 0x29, 0x80, 0x3a, 0x36, 
0xb2, 0x11, 0x38, 0x37, 0xd5, 0xbe, 0x36, 0x37, 0x20, 0x6b, 0x1b, 0x37, 
0x1f, 0xd1, 0x49, 0x37, 0x64, 0xda, 0x58, 0x36, 0x63, 0xb4, 0x60, 0x37, 
0x66, 0x23, 0x4e, 0x37, 0x9e, 0x68, 0xd5, 0x36, 0xbe, 0x03, 0x4e, 0x37, 
0xff, 0x53, 0x1e, 0x37, 0x4f, 0xc7, 0x38, 0x37, 0xc1, 0x29, 0x4a, 0x37, 
0x0b, 0x47, 0x37, 0x37, 0x1d, 0x81, 0x31, 0x36, 0x0c, 0x47, 0x4f, 0x37, 
0x51, 0x53, 0x57, 0x37, 0xcc, 0x43, 0x29, 0x37, 0x7d, 0x2a, 0x4e, 0x37, 
0x7b, 0xf8, 0x42, 0x37, 0xfe, 0x47, 0x48, 0x36, 0x77, 0x41, 0x11, 0x37, 
0xb5, 0xdd, 0x3a, 0x37, 0x3e, 0x25, 0x1c, 0x37, 0xb9, 0x51, 0x68, 0x37, 
0xd8, 0x53, 0xe6, 0x36, 0x0f, 0x04, 0x6a, 0x37, 0x64, 0xe1, 0x19, 0x37, 
0x09, 0x5e, 0x40, 0x37, 0x5f, 0x89, 0x25, 0x37, 0x12, 0x00, 0x00, 0x00, 
0x74, 0x66, 0x6c, 0x2e, 0x70, 0x73, 0x65, 0x75, 0x64, 0x6f, 0x5f, 0x71, 
0x63, 0x6f, 0x6e, 0x73, 0x74, 0x34, 0x00, 0x00, 0x01, 0x00, 0x00, 0x00, 
0x20, 0x00, 0x00, 0x00, 0x9a, 0xfb, 0xff, 0xff, 0x00, 0x00, 0x00, 0x01, 
0x14, 0x00, 0x00, 0x00, 0xa8, 0x01, 0x00, 0x00, 0x06, 0x00, 0x00, 0x00, 
0x00, 0x00, 0x00, 0x09, 0xb4, 0x01, 0x00, 0x00, 0x14, 0xfb, 0xff, 0xff, 
0x08, 0x00, 0x00, 0x00, 0x0c, 0x01, 0x00, 0x00, 0x20, 0x00, 0x00, 0x00, 
0x00, 0x00, 0x00, 0x00, 0x00, 0x00, 0x00, 0x00, 0x00, 0x00, 0x00, 0x00, 
0x00, 0x00, 0x00, 0x00, 0x00, 0x00, 0x00, 0x00, 0x00, 0x00, 0x00, 0x00, 
0x00, 0x00, 0x00, 0x00, 0x00, 0x00, 0x00, 0x00, 0x00, 0x00, 0x00, 0x00, 
0x00, 0x00, 0x00, 0x00, 0x00, 0x00, 0x00, 0x00, 0x00, 0x00, 0x00, 0x00, 
0x00, 0x00, 0x00, 0x00, 0x00, 0x00, 0x00, 0x00, 0x00, 0x00, 0x00, 0x00, 
0x00, 0x00, 0x00, 0x00, 0x00, 0x00, 0x00, 0x00, 0x00, 0x00, 0x00, 0x00, 
0x00, 0x00, 0x00, 0x00, 0x00, 0x00, 0x00, 0x00, 0x00, 0x00, 0x00, 0x00, 
0x00, 0x00, 0x00, 0x00, 0x00, 0x00, 0x00, 0x00, 0x00, 0x00, 0x00, 0x00, 
0x00, 0x00, 0x00, 0x00, 0x00, 0x00, 0x00, 0x00, 0x00, 0x00, 0x00, 0x00, 
0x00, 0x00, 0x00, 0x00, 0x00, 0x00, 0x00, 0x00, 0x00, 0x00, 0x00, 0x00, 
0x00, 0x00, 0x00, 0x00, 0x00, 0x00, 0x00, 0x00, 0x00, 0x00, 0x00, 0x00, 
0x00, 0x00, 0x00, 0x00, 0x00, 0x00, 0x00, 0x00, 0x00, 0x00, 0x00, 0x00, 
0x00, 0x00, 0x00, 0x00, 0x00, 0x00, 0x00, 0x00, 0x00, 0x00, 0x00, 0x00, 
0x00, 0x00, 0x00, 0x00, 0x00, 0x00, 0x00, 0x00, 0x00, 0x00, 0x00, 0x00, 
0x00, 0x00, 0x00, 0x00, 0x00, 0x00, 0x00, 0x00, 0x00, 0x00, 0x00, 0x00, 
0x00, 0x00, 0x00, 0x00, 0x00, 0x00, 0x00, 0x00, 0x00, 0x00, 0x00, 0x00, 
0x00, 0x00, 0x00, 0x00, 0x00, 0x00, 0x00, 0x00, 0x00, 0x00, 0x00, 0x00, 
0x00, 0x00, 0x00, 0x00, 0x00, 0x00, 0x00, 0x00, 0x00, 0x00, 0x00, 0x00, 
0x00, 0x00, 0x00, 0x00, 0x00, 0x00, 0x00, 0x00, 0x00, 0x00, 0x00, 0x00, 
0x00, 0x00, 0x00, 0x00, 0x00, 0x00, 0x00, 0x00, 0x00, 0x00, 0x00, 0x00, 
0x00, 0x00, 0x00, 0x00, 0x00, 0x00, 0x00, 0x00, 0x00, 0x00, 0x00, 0x00, 
0x00, 0x00, 0x00, 0x00, 0x00, 0x00, 0x00, 0x00, 0x20, 0x00, 0x00, 0x00, 
0x84, 0x7d, 0x79, 0x3b, 0xe3, 0x47, 0xd4, 0x3b, 0xeb, 0xad, 0x01, 0x3c, 
0x0e, 0x26, 0x0e, 0x3b, 0xa1, 0x69, 0x1f, 0x3c, 0x7c, 0xfd, 0x1e, 0x3b, 
0xef, 0xac, 0x1e, 0x3b, 0xf2, 0xb8, 0x20, 0x3c, 0x7b, 0x9a, 0x0c, 0x3c, 
0xd9, 0xa3, 0x59, 0x3b, 0x43, 0xa9, 0xf6, 0x3b, 0x09, 0xd9, 0x0e, 0x3c, 
0x39, 0x25, 0x0f, 0x3c, 0x66, 0x47, 0xd2, 0x3b, 0xf3, 0x6f, 0x22, 0x3b, 
0x42, 0xa1, 0x15, 0x3b, 0xe4, 0x6d, 0x1d, 0x3b, 0xce, 0xf2, 0x3d, 0x3b, 
0x78, 0x80, 0x75, 0x3b, 0x87, 0x9e, 0x34, 0x3b, 0x07, 0xf0, 0x25, 0x3c, 
0xb3, 0x26, 0x17, 0x3c, 0xcc, 0x99, 0x25, 0x3c, 0xd5, 0x1f, 0x2e, 0x3b, 
0x7d, 0x1b, 0x2b, 0x3b, 0xfe, 0xfd, 0x0b, 0x3c, 0xa4, 0x1d, 0x58, 0x3b, 
0x9e, 0xab, 0xde, 0x3b, 0x53, 0xb0, 0x39, 0x3b, 0x07, 0xb2, 0x15, 0x3b, 
0xef, 0xce, 0x27, 0x3b, 0x17, 0x9d, 0xdf, 0x3b, 0x12, 0x00, 0x00, 0x00, 
0x74, 0x66, 0x6c, 0x2e, 0x70, 0x73, 0x65, 0x75, 0x64, 0x6f, 0x5f, 0x71, 
0x63, 0x6f, 0x6e, 0x73, 0x74, 0x33, 0x00, 0x00, 0x02, 0x00, 0x00, 0x00, 
0x20, 0x00, 0x00, 0x00, 0x20, 0x00, 0x00, 0x00, 0x72, 0xfd, 0xff, 0xff, 
0x00, 0x00, 0x00, 0x01, 0x14, 0x00, 0x00, 0x00, 0xa4, 0x01, 0x00, 0x00, 
0x05, 0x00, 0x00, 0x00, 0x00, 0x00, 0x00, 0x02, 0xb0, 0x01, 0x00, 0x00, 
0xec, 0xfc, 0xff, 0xff, 0x08, 0x00, 0x00, 0x00, 0x08, 0x01, 0x00, 0x00, 
0x20, 0x00, 0x00, 0x00, 0x00, 0x00, 0x00, 0x00, 0x00, 0x00, 0x00, 0x00, 
0x00, 0x00, 0x00, 0x00, 0x00, 0x00, 0x00, 0x00, 0x00, 0x00, 0x00, 0x00, 
0x00, 0x00, 0x00, 0x00, 0x00, 0x00, 0x00, 0x00, 0x00, 0x00, 0x00, 0x00, 
0x00, 0x00, 0x00, 0x00, 0x00, 0x00, 0x00, 0x00, 0x00, 0x00, 0x00, 0x00, 
0x00, 0x00, 0x00, 0x00, 0x00, 0x00, 0x00, 0x00, 0x00, 0x00, 0x00, 0x00, 
0x00, 0x00, 0x00, 0x00, 0x00, 0x00, 0x00, 0x00, 0x00, 0x00, 0x00, 0x00, 
0x00, 0x00, 0x00, 0x00, 0x00, 0x00, 0x00, 0x00, 0x00, 0x00, 0x00, 0x00, 
0x00, 0x00, 0x00, 0x00, 0x00, 0x00, 0x00, 0x00, 0x00, 0x00, 0x00, 0x00, 
0x00, 0x00, 0x00, 0x00, 0x00, 0x00, 0x00, 0x00, 0x00, 0x00, 0x00, 0x00, 
0x00, 0x00, 0x00, 0x00, 0x00, 0x00, 0x00, 0x00, 0x00, 0x00, 0x00, 0x00, 
0x00, 0x00, 0x00, 0x00, 0x00, 0x00, 0x00, 0x00, 0x00, 0x00, 0x00, 0x00, 
0x00, 0x00, 0x00, 0x00, 0x00, 0x00, 0x00, 0x00, 0x00, 0x00, 0x00, 0x00, 
0x00, 0x00, 0x00, 0x00, 0x00, 0x00, 0x00, 0x00, 0x00, 0x00, 0x00, 0x00, 
0x00, 0x00, 0x00, 0x00, 0x00, 0x00, 0x00, 0x00, 0x00, 0x00, 0x00, 0x00, 
0x00, 0x00, 0x00, 0x00, 0x00, 0x00, 0x00, 0x00, 0x00, 0x00, 0x00, 0x00, 
0x00, 0x00, 0x00, 0x00, 0x00, 0x00, 0x00, 0x00, 0x00, 0x00, 0x00, 0x00, 
0x00, 0x00, 0x00, 0x00, 0x00, 0x00, 0x00, 0x00, 0x00, 0x00, 0x00, 0x00, 
0x00, 0x00, 0x00, 0x00, 0x00, 0x00, 0x00, 0x00, 0x00, 0x00, 0x00, 0x00, 
0x00, 0x00, 0x00, 0x00, 0x00, 0x00, 0x00, 0x00, 0x00, 0x00, 0x00, 0x00, 
0x00, 0x00, 0x00, 0x00, 0x00, 0x00, 0x00, 0x00, 0x00, 0x00, 0x00, 0x00, 
0x00, 0x00, 0x00, 0x00, 0x00, 0x00, 0x00, 0x00, 0x00, 0x00, 0x00, 0x00, 
0x00, 0x00, 0x00, 0x00, 0x00, 0x00, 0x00, 0x00, 0x20, 0x00, 0x00, 0x00, 
0x83, 0xb3, 0x0b, 0x37, 0x56, 0xbb, 0x6d, 0x37, 0x1d, 0x3a, 0x91, 0x37, 
0xf7, 0x30, 0x9f, 0x36, 0x6a, 0x86, 0xb2, 0x37, 0x4e, 0x0d, 0xb2, 0x36, 
0x19, 0xb3, 0xb1, 0x36, 0xef, 0xfd, 0xb3, 0x37, 0xf7, 0x75, 0x9d, 0x37, 
0xc9, 0xbb, 0xf3, 0x36, 0xf8, 0x1d, 0x8a, 0x37, 0x68, 0xf9, 0x9f, 0x37, 
0xba, 0x4e, 0xa0, 0x37, 0x67, 0x7d, 0x6b, 0x37, 0x92, 0xe9, 0xb5, 0x36, 
0xca, 0x91, 0xa7, 0x36, 0xce, 0x4d, 0xb0, 0x36, 0xd1, 0xb8, 0xd4, 0x36, 
0xc7, 0x77, 0x09, 0x37, 0x33, 0x46, 0xca, 0x36, 0x15, 0xd5, 0xb9, 0x37, 
0xec, 0x45, 0xa9, 0x37, 0x84, 0x74, 0xb9, 0x37, 0x29, 0x00, 0xc3, 0x36, 
0x38, 0x9f, 0xbf, 0x36, 0xb7, 0xc6, 0x9c, 0x37, 0xcc, 0x06, 0xf2, 0x36, 
0xf3, 0x5d, 0x79, 0x37, 0x98, 0xf3, 0xcf, 0x36, 0x92, 0xa4, 0xa7, 0x36, 
0x68, 0xed, 0xbb, 0x36, 0x5f, 0x6c, 0x7a, 0x37, 0x12, 0x00, 0x00, 0x00, 
0x74, 0x66, 0x6c, 0x2e, 0x70, 0x73, 0x65, 0x75, 0x64, 0x6f, 0x5f, 0x71, 
0x63, 0x6f, 0x6e, 0x73, 0x74, 0x32, 0x00, 0x00, 0x01, 0x00, 0x00, 0x00, 
0x20, 0x00, 0x00, 0x00, 0x42, 0xff, 0xff, 0xff, 0x00, 0x00, 0x00, 0x01, 
0x14, 0x00, 0x00, 0x00, 0x30, 0x00, 0x00, 0x00, 0x04, 0x00, 0x00, 0x00, 
0x00, 0x00, 0x00, 0x09, 0x3c, 0x00, 0x00, 0x00, 0xbc, 0xfe, 0xff, 0xff, 
0x08, 0x00, 0x00, 0x00, 0x10, 0x00, 0x00, 0x00, 0x01, 0x00, 0x00, 0x00, 
0x00, 0x00, 0x00, 0x00, 0x00, 0x00, 0x00, 0x00, 0x01, 0x00, 0x00, 0x00, 
0x69, 0xd8, 0xb8, 0x3b, 0x12, 0x00, 0x00, 0x00, 0x74, 0x66, 0x6c, 0x2e, 
0x70, 0x73, 0x65, 0x75, 0x64, 0x6f, 0x5f, 0x71, 0x63, 0x6f, 0x6e, 0x73, 
0x74, 0x31, 0x00, 0x00, 0x02, 0x00, 0x00, 0x00, 0x01, 0x00, 0x00, 0x00, 
0x20, 0x00, 0x00, 0x00, 0xa2, 0xff, 0xff, 0xff, 0x00, 0x00, 0x00, 0x01, 
0x14, 0x00, 0x00, 0x00, 0x30, 0x00, 0x00, 0x00, 0x03, 0x00, 0x00, 0x00, 
0x00, 0x00, 0x00, 0x02, 0x3c, 0x00, 0x00, 0x00, 0x1c, 0xff, 0xff, 0xff, 
0x08, 0x00, 0x00, 0x00, 0x10, 0x00, 0x00, 0x00, 0x01, 0x00, 0x00, 0x00, 
0x00, 0x00, 0x00, 0x00, 0x00, 0x00, 0x00, 0x00, 0x01, 0x00, 0x00, 0x00, 
0x03, 0x32, 0xc8, 0x37, 0x11, 0x00, 0x00, 0x00, 0x74, 0x66, 0x6c, 0x2e, 
0x70, 0x73, 0x65, 0x75, 0x64, 0x6f, 0x5f, 0x71, 0x63, 0x6f, 0x6e, 0x73, 
0x74, 0x00, 0x00, 0x00, 0x01, 0x00, 0x00, 0x00, 0x01, 0x00, 0x00, 0x00, 
0x00, 0x00, 0x16, 0x00, 0x1c, 0x00, 0x18, 0x00, 0x17, 0x00, 0x10, 0x00, 
0x0c, 0x00, 0x08, 0x00, 0x00, 0x00, 0x00, 0x00, 0x00, 0x00, 0x07, 0x00, 
0x16, 0x00, 0x00, 0x00, 0x00, 0x00, 0x00, 0x01, 0x18, 0x00, 0x00, 0x00, 
0x18, 0x00, 0x00, 0x00, 0x02, 0x00, 0x00, 0x00, 0x00, 0x00, 0x00, 0x02, 
0x20, 0x00, 0x00, 0x00, 0x04, 0x00, 0x04, 0x00, 0x04, 0x00, 0x00, 0x00, 
0x0e, 0x00, 0x00, 0x00, 0x61, 0x72, 0x69, 0x74, 0x68, 0x2e, 0x63, 0x6f, 
0x6e, 0x73, 0x74, 0x61, 0x6e, 0x74, 0x00, 0x00, 0x01, 0x00, 0x00, 0x00, 
0x02, 0x00, 0x00, 0x00, 0x00, 0x00, 0x16, 0x00, 0x20, 0x00, 0x1c, 0x00, 
0x1b, 0x00, 0x14, 0x00, 0x10, 0x00, 0x0c, 0x00, 0x00, 0x00, 0x00, 0x00, 
0x08, 0x00, 0x07, 0x00, 0x16, 0x00, 0x00, 0x00, 0x00, 0x00, 0x00, 0x01, 
0x18, 0x00, 0x00, 0x00, 0x34, 0x00, 0x00, 0x00, 0x54, 0x00, 0x00, 0x00, 
0x01, 0x00, 0x00, 0x00, 0x00, 0x00, 0x00, 0x09, 0x6c, 0x00, 0x00, 0x00, 
0x04, 0x00, 0x00, 0x00, 0xff, 0xff, 0xff, 0xff, 0x60, 0x00, 0x00, 0x00, 
0x60, 0x00, 0x00, 0x00, 0x01, 0x00, 0x00, 0x00, 0x0c, 0x00, 0x0c, 0x00, 
0x00, 0x00, 0x00, 0x00, 0x08, 0x00, 0x04, 0x00, 0x0c, 0x00, 0x00, 0x00, 
0x08, 0x00, 0x00, 0x00, 0x14, 0x00, 0x00, 0x00, 0x01, 0x00, 0x00, 0x00, 
0x80, 0xff, 0xff, 0xff, 0xff, 0xff, 0xff, 0xff, 0x00, 0x00, 0x00, 0x00, 
0x01, 0x00, 0x00, 0x00, 0x81, 0x80, 0x80, 0x3b, 0x1e, 0x00, 0x00, 0x00, 
0x73, 0x65, 0x72, 0x76, 0x69, 0x6e, 0x67, 0x5f, 0x64, 0x65, 0x66, 0x61, 
0x75, 0x6c, 0x74, 0x5f, 0x6b, 0x65, 0x72, 0x61, 0x73, 0x5f, 0x74, 0x65, 
0x6e, 0x73, 0x6f, 0x72, 0x3a, 0x30, 0x00, 0x00, 0x04, 0x00, 0x00, 0x00, 
0x01, 0x00, 0x00, 0x00, 0x60, 0x00, 0x00, 0x00, 0x60, 0x00, 0x00, 0x00, 
0x01, 0x00, 0x00, 0x00, 0x05, 0x00, 0x00, 0x00, 0x60, 0x00, 0x00, 0x00, 
0x40, 0x00, 0x00, 0x00, 0x2c, 0x00, 0x00, 0x00, 0x18, 0x00, 0x00, 0x00, 
0x04, 0x00, 0x00, 0x00, 0xc0, 0xff, 0xff, 0xff, 0x0e, 0x00, 0x00, 0x00, 
0x02, 0x00, 0x00, 0x00, 0x00, 0x00, 0x00, 0x0e, 0xd0, 0xff, 0xff, 0xff, 
0x09, 0x00, 0x00, 0x00, 0x04, 0x00, 0x00, 0x00, 0x00, 0x00, 0x00, 0x09, 
0xe0, 0xff, 0xff, 0xff, 0x28, 0x00, 0x00, 0x00, 0x02, 0x00, 0x00, 0x00, 
0x00, 0x00, 0x00, 0x28, 0xf0, 0xff, 0xff, 0xff, 0x11, 0x00, 0x00, 0x00, 
0x02, 0x00, 0x00, 0x00, 0x00, 0x00, 0x00, 0x11, 0x0c, 0x00, 0x10, 0x00, 
0x0f, 0x00, 0x00, 0x00, 0x08, 0x00, 0x04, 0x00, 0x0c, 0x00, 0x00, 0x00, 
0x03, 0x00, 0x00, 0x00, 0x03, 0x00, 0x00, 0x00, 0x00, 0x00, 0x00, 0x03, 

};
extern "C" const unsigned int modelLen = 11712;
