extern "C" const unsigned char modelWeights[] = {
0x20, 0x00, 0x00, 0x00, 0x54, 0x46, 0x4c, 0x33, 0x00, 0x00, 0x00, 0x00, 
0x14, 0x00, 0x20, 0x00, 0x1c, 0x00, 0x18, 0x00, 0x14, 0x00, 0x10, 0x00, 
0x0c, 0x00, 0x00, 0x00, 0x08, 0x00, 0x04, 0x00, 0x14, 0x00, 0x00, 0x00, 
0x1c, 0x00, 0x00, 0x00, 0x8c, 0x00, 0x00, 0x00, 0x0c, 0x01, 0x00, 0x00, 
0x98, 0x10, 0x00, 0x00, 0xa8, 0x10, 0x00, 0x00, 0x14, 0x23, 0x00, 0x00, 
0x03, 0x00, 0x00, 0x00, 0x01, 0x00, 0x00, 0x00, 0x04, 0x00, 0x00, 0x00, 
0x0e, 0xef, 0xff, 0xff, 0x0c, 0x00, 0x00, 0x00, 0x1c, 0x00, 0x00, 0x00, 
0x3c, 0x00, 0x00, 0x00, 0x0f, 0x00, 0x00, 0x00, 0x73, 0x65, 0x72, 0x76, 
0x69, 0x6e, 0x67, 0x5f, 0x64, 0x65, 0x66, 0x61, 0x75, 0x6c, 0x74, 0x00, 
0x01, 0x00, 0x00, 0x00, 0x04, 0x00, 0x00, 0x00, 0x68, 0xff, 0xff, 0xff, 
0x10, 0x00, 0x00, 0x00, 0x04, 0x00, 0x00, 0x00, 0x08, 0x00, 0x00, 0x00, 
0x6f, 0x75, 0x74, 0x70, 0x75, 0x74, 0x5f, 0x30, 0x00, 0x00, 0x00, 0x00, 
0x01, 0x00, 0x00, 0x00, 0x04, 0x00, 0x00, 0x00, 0xf2, 0xef, 0xff, 0xff, 
0x04, 0x00, 0x00, 0x00, 0x0c, 0x00, 0x00, 0x00, 0x6b, 0x65, 0x72, 0x61, 
0x73, 0x5f, 0x74, 0x65, 0x6e, 0x73, 0x6f, 0x72, 0x00, 0x00, 0x00, 0x00, 
0x03, 0x00, 0x00, 0x00, 0x5c, 0x00, 0x00, 0x00, 0x2c, 0x00, 0x00, 0x00, 
0x04, 0x00, 0x00, 0x00, 0xb8, 0xff, 0xff, 0xff, 0x14, 0x00, 0x00, 0x00, 
0x04, 0x00, 0x00, 0x00, 0x13, 0x00, 0x00, 0x00, 0x43, 0x4f, 0x4e, 0x56, 
0x45, 0x52, 0x53, 0x49, 0x4f, 0x4e, 0x5f, 0x4d, 0x45, 0x54, 0x41, 0x44, 
0x41, 0x54, 0x41, 0x00, 0xdc, 0xff, 0xff, 0xff, 0x13, 0x00, 0x00, 0x00, 
0x04, 0x00, 0x00, 0x00, 0x13, 0x00, 0x00, 0x00, 0x6d, 0x69, 0x6e, 0x5f, 
0x72, 0x75, 0x6e, 0x74, 0x69, 0x6d, 0x65, 0x5f, 0x76, 0x65, 0x72, 0x73, 
0x69, 0x6f, 0x6e, 0x00, 0x08, 0x00, 0x0c, 0x00, 0x08, 0x00, 0x04, 0x00, 
0x08, 0x00, 0x00, 0x00, 0x12, 0x00, 0x00, 0x00, 0x04, 0x00, 0x00, 0x00, 
0x13, 0x00, 0x00, 0x00, 0x6d, 0x69, 0x6e, 0x5f, 0x72, 0x75, 0x6e, 0x74, 
0x69, 0x6d, 0x65, 0x5f, 0x76, 0x65, 0x72, 0x73, 0x69, 0x6f, 0x6e, 0x00, 
0x15, 0x00, 0x00, 0x00, 0x88, 0x0f, 0x00, 0x00, 0x80, 0x0f, 0x00, 0x00, 
0x68, 0x0f, 0x00, 0x00, 0x4c, 0x0f, 0x00, 0x00, 0x1c, 0x0f, 0x00, 0x00, 
0x8c, 0x0e, 0x00, 0x00, 0x7c, 0x0a, 0x00, 0x00, 0xec, 0x09, 0x00, 0x00, 
0xdc, 0x01, 0x00, 0x00, 0x8c, 0x01, 0x00, 0x00, 0xec, 0x00, 0x00, 0x00, 
0xe4, 0x00, 0x00, 0x00, 0xdc, 0x00, 0x00, 0x00, 0xd4, 0x00, 0x00, 0x00, 
0xcc, 0x00, 0x00, 0x00, 0xc4, 0x00, 0x00, 0x00, 0xbc, 0x00, 0x00, 0x00, 
0xb4, 0x00, 0x00, 0x00, 0x94, 0x00, 0x00, 0x00, 0x74, 0x00, 0x00, 0x00, 
0x04, 0x00, 0x00, 0x00, 0xea, 0xf0, 0xff, 0xff, 0x04, 0x00, 0x00, 0x00, 
0x60, 0x00, 0x00, 0x00, 0x0c, 0x00, 0x00, 0x00, 0x08, 0x00, 0x0e, 0x00, 
0x08, 0x00, 0x04, 0x00, 0x08, 0x00, 0x00, 0x00, 0x10, 0x00, 0x00, 0x00, 
0x28, 0x00, 0x00, 0x00, 0x00, 0x00, 0x06, 0x00, 0x08, 0x00, 0x04, 0x00, 
0x06, 0x00, 0x00, 0x00, 0x04, 0x00, 0x00, 0x00, 0x01, 0x00, 0x00, 0x00, 
0xeb, 0x03, 0x00, 0x00, 0x0c, 0x00, 0x18, 0x00, 0x14, 0x00, 0x10, 0x00, 
0x0c, 0x00, 0x04, 0x00, 0x0c, 0x00, 0x00, 0x00, 0x5b, 0xb4, 0x06, 0x9d, 
0x36, 0xe3, 0x4e, 0x49, 0x02, 0x00, 0x00, 0x00, 0x02, 0x00, 0x00, 0x00, 
0x04, 0x00, 0x00, 0x00, 0x06, 0x00, 0x00, 0x00, 0x32, 0x2e, 0x31, 0x39, 
0x2e, 0x30, 0x00, 0x00, 0x56, 0xf1, 0xff, 0xff, 0x04, 0x00, 0x00, 0x00, 
0x10, 0x00, 0x00, 0x00, 0x00, 0x00, 0x00, 0x00, 0x00, 0x00, 0x00, 0x00, 
0x00, 0x00, 0x00, 0x00, 0x00, 0x00, 0x00, 0x00, 0x72, 0xf1, 0xff, 0xff, 
0x04, 0x00, 0x00, 0x00, 0x10, 0x00, 0x00, 0x00, 0x31, 0x2e, 0x31, 0x34, 
0x2e, 0x30, 0x00, 0x00, 0x00, 0x00, 0x00, 0x00, 0x00, 0x00, 0x00, 0x00, 
0xc0, 0xdf, 0xff, 0xff, 0xc4, 0xdf, 0xff, 0xff, 0xc8, 0xdf, 0xff, 0xff, 
0xcc, 0xdf, 0xff, 0xff, 0xd0, 0xdf, 0xff, 0xff, 0xd4, 0xdf, 0xff, 0xff, 
0xd8, 0xdf, 0xff, 0xff, 0xaa, 0xf1, 0xff, 0xff, 0x04, 0x00, 0x00, 0x00, 
0x90, 0x00, 0x00, 0x00, 0x77, 0x91, 0xe2, 0x53, 0x85, 0xe3, 0x7f, 0xb6, 
0xd0, 0xb7, 0xb9, 0x37, 0x86, 0x9b, 0x11, 0x8e, 0x81, 0x00, 0xfb, 0x81, 
0xb2, 0x1a, 0xa2, 0xca, 0x13, 0xea, 0xd7, 0x4b, 0x2e, 0x7f, 0xca, 0x9b, 
0xbe, 0xa3, 0xca, 0x93, 0x30, 0xf8, 0x99, 0x1a, 0x19, 0xf8, 0x9b, 0xfa, 
0x7f, 0x56, 0xd8, 0x81, 0x2b, 0xe3, 0xf1, 0x63, 0xd6, 0xec, 0x5b, 0xab, 
0xdf, 0x17, 0xde, 0x1c, 0x81, 0x72, 0x24, 0x26, 0x37, 0xc0, 0x7f, 0xef, 
0x8a, 0x6c, 0x38, 0x8c, 0x5d, 0x81, 0x06, 0x49, 0xc6, 0xc8, 0x17, 0x16, 
0x2a, 0xaa, 0xba, 0x41, 0x3e, 0x02, 0x81, 0xd5, 0x7f, 0xe5, 0x87, 0x81, 
0xb3, 0xf0, 0x25, 0x4e, 0x45, 0x49, 0x43, 0x04, 0xd6, 0x7f, 0xb6, 0x1b, 
0x48, 0x8e, 0x4a, 0x74, 0xab, 0xff, 0x57, 0x81, 0xed, 0x22, 0xda, 0x12, 
0x6c, 0x91, 0x07, 0xdf, 0xae, 0x17, 0x81, 0x85, 0xe7, 0xd5, 0xdc, 0x05, 
0xca, 0x17, 0xa3, 0xd6, 0x11, 0x60, 0x7f, 0x7e, 0x4e, 0x5b, 0xcb, 0xc4, 
0x17, 0xaf, 0x81, 0x07, 0x46, 0xf2, 0xff, 0xff, 0x04, 0x00, 0x00, 0x00, 
0x40, 0x00, 0x00, 0x00, 0xac, 0xed, 0xff, 0xff, 0xfc, 0x21, 0x00, 0x00, 
0x5d, 0x4b, 0x00, 0x00, 0xbb, 0x2e, 0x00, 0x00, 0x10, 0xdc, 0xff, 0xff, 
0x20, 0xe2, 0xff, 0xff, 0xd0, 0xdb, 0xff, 0xff, 0xbd, 0xb4, 0xff, 0xff, 
0xbc, 0xdd, 0xff, 0xff, 0xdf, 0xfd, 0xff, 0xff, 0xad, 0xfd, 0xff, 0xff, 
0xb5, 0x90, 0xff, 0xff, 0x75, 0xde, 0xff, 0xff, 0x1f, 0xf5, 0xff, 0xff, 
0x0a, 0xc6, 0xff, 0xff, 0x30, 0xfc, 0xff, 0xff, 0x92, 0xf2, 0xff, 0xff, 
0x04, 0x00, 0x00, 0x00, 0x00, 0x08, 0x00, 0x00, 0x3d, 0x22, 0x11, 0xb8, 
0x57, 0x16, 0x7f, 0x10, 0x1f, 0x58, 0x02, 0x15, 0x10, 0xfc, 0x09, 0x17, 
0x2c, 0xef, 0xfa, 0xd0, 0x57, 0x13, 0x6f, 0x0e, 0x26, 0x45, 0x13, 0x31, 
0x37, 0x01, 0x03, 0x16, 0x2b, 0x19, 0xde, 0xa7, 0x5e, 0x10, 0x7d, 0x0e, 
0x1b, 0x5c, 0xe7, 0x20, 0x01, 0x02, 0x08, 0x13, 0x2d, 0xd8, 0xee, 0xba, 
0x64, 0x10, 0x79, 0x14, 0x24, 0x3e, 0xfb, 0x3b, 0x2f, 0x08, 0xfa, 0x0f, 
0x16, 0x50, 0xc8, 0xcf, 0xea, 0x09, 0xdf, 0x0a, 0xf4, 0xfd, 0x09, 0x06, 
0x14, 0xf6, 0xf9, 0x13, 0x2d, 0x70, 0xc7, 0xd7, 0xdc, 0x0b, 0xde, 0x12, 
0x0e, 0xf3, 0x1b, 0x02, 0x3d, 0xf6, 0xfc, 0x0f, 0x30, 0x34, 0xe4, 0x94, 
0xd6, 0x09, 0xd0, 0xfb, 0x04, 0xfe, 0x12, 0x02, 0x15, 0x09, 0xd5, 0x17, 
0x34, 0x7f, 0xef, 0xa8, 0xb4, 0x0e, 0xc6, 0x0a, 0x19, 0xe1, 0x06, 0x09, 
0x33, 0x06, 0xdb, 0x12, 0x42, 0x4a, 0xf8, 0x9a, 0x1d, 0x0c, 0x20, 0x18, 
0x1f, 0x39, 0xf2, 0x09, 0x11, 0x08, 0xfb, 0x23, 0x4f, 0x7f, 0xdd, 0xb6, 
0x14, 0x10, 0x13, 0x18, 0x26, 0x32, 0x04, 0x1c, 0x4a, 0x02, 0xf9, 0x22, 
0x50, 0x34, 0xe3, 0x90, 0x07, 0x12, 0x12, 0x0c, 0x2b, 0x36, 0xfc, 0x0d, 
0x1c, 0xfd, 0xeb, 0x1c, 0x3a, 0x7c, 0xd0, 0xbe, 0x0d, 0x12, 0x1d, 0x0b, 
0x28, 0x1b, 0x04, 0x1d, 0x40, 0xf9, 0xf0, 0x19, 0x07, 0x47, 0xb6, 0xeb, 
0x04, 0xfb, 0xf6, 0x00, 0xfa, 0xe8, 0x16, 0x05, 0x1d, 0x04, 0x1b, 0x0d, 
0x1f, 0x62, 0xc1, 0xce, 0xe4, 0x10, 0xe9, 0xfe, 0x04, 0xe2, 0x16, 0xfe, 
0x32, 0x02, 0x17, 0x15, 0x1a, 0x4b, 0xd3, 0x94, 0xe0, 0x0e, 0xcf, 0x00, 
0xfb, 0xfa, 0x0a, 0xfe, 0x21, 0x09, 0xdc, 0xdc, 0x20, 0x7f, 0xf1, 0xca, 
0xb5, 0x14, 0xc4, 0xfe, 0x0b, 0xe9, 0x03, 0x00, 0x25, 0xfc, 0xdd, 0xe3, 
0xfa, 0x47, 0xce, 0x03, 0xef, 0xf6, 0xe3, 0xdd, 0xf5, 0xfb, 0x1b, 0xfb, 
0x1a, 0x07, 0xf7, 0x12, 0x21, 0x7c, 0xc3, 0xac, 0xdc, 0x06, 0xce, 0x0e, 
0x0b, 0xe5, 0x1c, 0x01, 0x30, 0x08, 0xf9, 0x09, 0x08, 0x52, 0xc1, 0x98, 
0xf1, 0x02, 0xd5, 0xd6, 0x01, 0xe2, 0x10, 0x08, 0x17, 0xf9, 0xe0, 0x0c, 
0x21, 0x7f, 0xe2, 0x93, 0xa0, 0x13, 0xa0, 0x09, 0x12, 0xed, 0xfa, 0x03, 
0x1b, 0x07, 0xbf, 0xf8, 0x0e, 0x3c, 0xb3, 0xe7, 0xfb, 0xff, 0xe5, 0x00, 
0xf3, 0xd7, 0x20, 0x05, 0x1f, 0x09, 0x1b, 0x0b, 0x1d, 0x6d, 0xb6, 0xda, 
0xfd, 0x11, 0xd7, 0x0a, 0x11, 0xe3, 0x16, 0xf9, 0x2c, 0xfb, 0x0d, 0x19, 
0x16, 0x52, 0xd9, 0x9d, 0xda, 0x0d, 0xb6, 0xfd, 0xee, 0xe3, 0x1f, 0x06, 
0x12, 0xfe, 0xc4, 0xcb, 0x0e, 0x7f, 0xdd, 0xc6, 0xb3, 0x07, 0xa3, 0xfc, 
0xf8, 0xc8, 0x1f, 0xfb, 0x21, 0x01, 0xb3, 0xd0, 0x2d, 0x50, 0xcc, 0xcb, 
0xe5, 0x0b, 0xeb, 0x19, 0x0a, 0x00, 0x0f, 0x01, 0x1f, 0xff, 0x08, 0x1a, 
0x34, 0x77, 0xcd, 0xbb, 0xdf, 0x17, 0xe3, 0x0e, 0x12, 0xf1, 0x17, 0x08, 
0x32, 0x0a, 0x01, 0x12, 0x40, 0x3d, 0xcd, 0x98, 0xc6, 0x16, 0xca, 0x08, 
0x14, 0xf6, 0x09, 0x02, 0x21, 0x07, 0xd8, 0x0c, 0x31, 0x7f, 0xea, 0xb2, 
0xb7, 0x0e, 0xd4, 0x06, 0x1e, 0xe5, 0x0d, 0x14, 0x36, 0x05, 0xd3, 0x02, 
0x2e, 0x3c, 0xc9, 0xde, 0xec, 0x0f, 0xdd, 0x11, 0x0f, 0xe7, 0x12, 0x04, 
0x1c, 0xfd, 0x0a, 0x17, 0x35, 0x6b, 0xcc, 0xcd, 0xeb, 0x10, 0xcf, 0x11, 
0x15, 0xff, 0x1c, 0xf9, 0x27, 0xfc, 0x0c, 0x0f, 0x32, 0x3c, 0xe9, 0x92, 
0xca, 0x0b, 0xb9, 0x07, 0x10, 0xee, 0x15, 0xfe, 0x16, 0xf7, 0xc5, 0xea, 
0x26, 0x7f, 0xe6, 0xbe, 0xa3, 0x11, 0xb2, 0x03, 0x11, 0xe9, 0x05, 0x01, 
0x19, 0x07, 0xdb, 0xef, 0x1e, 0x4a, 0xbd, 0xe5, 0xff, 0xff, 0xf5, 0xf7, 
0x03, 0xff, 0x14, 0xf9, 0x1b, 0x00, 0x00, 0x0a, 0x2b, 0x79, 0xc4, 0xc4, 
0xe0, 0x0a, 0xe6, 0xfd, 0x0f, 0xea, 0x1c, 0x06, 0x2c, 0x04, 0x09, 0x1b, 
0x14, 0x55, 0xd0, 0x8b, 0xde, 0x14, 0xcb, 0xee, 0x11, 0xf6, 0x0e, 0x06, 
0x16, 0x02, 0xc7, 0xe6, 0x25, 0x7f, 0xf1, 0x99, 0xb9, 0x10, 0xbf, 0xfe, 
0x0a, 0xd9, 0x13, 0xf8, 0x32, 0x07, 0xc3, 0xfd, 0xb4, 0xfb, 0x26, 0x38, 
0x4c, 0xfd, 0x44, 0x01, 0xf5, 0x0d, 0xf8, 0xfd, 0xde, 0x00, 0x64, 0x11, 
0xbb, 0x9d, 0x17, 0x40, 0x54, 0xfe, 0x3c, 0x08, 0xe8, 0x0a, 0xfd, 0x18, 
0xd3, 0x04, 0x64, 0x01, 0xcd, 0xf1, 0x22, 0x2b, 0x4b, 0x1e, 0x3f, 0x19, 
0x0f, 0x2b, 0x08, 0x0d, 0xdd, 0x06, 0x59, 0x0b, 0xdf, 0x81, 0x20, 0x2b, 
0x4e, 0x05, 0x46, 0x1b, 0xfc, 0x14, 0x03, 0x0e, 0xd5, 0x0d, 0x59, 0x00, 
0x03, 0x04, 0xdd, 0x18, 0xf2, 0x03, 0xed, 0x06, 0x17, 0xee, 0x23, 0x0a, 
0x14, 0xfc, 0x17, 0x12, 0x12, 0xb7, 0xd5, 0x01, 0xec, 0x00, 0xdc, 0xee, 
0x2a, 0x02, 0x26, 0xf4, 0x0e, 0xfc, 0x0e, 0x1e, 0xec, 0xe3, 0x05, 0xad, 
0xe5, 0xf0, 0xd9, 0xdf, 0x07, 0xf6, 0x24, 0x02, 0x04, 0xfd, 0xf0, 0xe3, 
0xeb, 0xc8, 0xbd, 0x81, 0xc2, 0xe0, 0x9c, 0xd0, 0x08, 0xf2, 0x11, 0xea, 
0xe8, 0xfc, 0xf8, 0xe3, 0x0f, 0xd6, 0xfe, 0x04, 0x50, 0x0a, 0x6d, 0x0a, 
0x0d, 0x47, 0xd7, 0x12, 0xf2, 0x09, 0x2c, 0xfb, 0xee, 0xa2, 0xf1, 0x07, 
0x42, 0xfc, 0x3f, 0x01, 0x0a, 0xe0, 0xd6, 0x2b, 0x15, 0x02, 0xf8, 0xf9, 
0xfb, 0xdc, 0x01, 0x15, 0x5f, 0x0a, 0x7f, 0x0a, 0x1c, 0x3b, 0xc7, 0x10, 
0xe4, 0xf9, 0x4a, 0xef, 0xd1, 0xa4, 0xfd, 0x07, 0x34, 0xf7, 0x38, 0xfc, 
0x0a, 0xfb, 0xb8, 0x1f, 0xf6, 0xfd, 0xbc, 0xf2, 0x02, 0x11, 0xc5, 0x05, 
0xea, 0x06, 0xe6, 0x01, 0x03, 0xd5, 0x1a, 0xd8, 0xe5, 0x05, 0x17, 0x10, 
0x10, 0x2f, 0xcb, 0x0e, 0xf2, 0x19, 0x03, 0x16, 0x25, 0xf1, 0x21, 0x02, 
0x12, 0x06, 0x1c, 0x0f, 0xf1, 0x26, 0xdc, 0xd5, 0xcb, 0xfd, 0xc4, 0x00, 
0xfe, 0xf3, 0x1f, 0xb6, 0x81, 0xfd, 0x05, 0xd3, 0x08, 0x4c, 0xe6, 0xf5, 
0xe7, 0x13, 0xe9, 0x0d, 0x16, 0xee, 0x27, 0xf3, 0x01, 0xfa, 0x06, 0xf0, 
0x15, 0x43, 0xba, 0xe0, 0xfb, 0x04, 0xde, 0xfb, 0xf9, 0xec, 0x1d, 0x05, 
0x1c, 0xff, 0x02, 0x13, 0x26, 0x61, 0xbc, 0xcd, 0xe1, 0x0e, 0xcf, 0x02, 
0x10, 0xe5, 0x16, 0xf7, 0x1c, 0x04, 0x0a, 0x15, 0x1c, 0x4f, 0xe0, 0x89, 
0xdc, 0x10, 0xbf, 0x00, 0xeb, 0xeb, 0x1d, 0x05, 0x14, 0x01, 0xb7, 0xe1, 
0x29, 0x7f, 0xf3, 0xc6, 0xaf, 0x0b, 0xab, 0x02, 0x10, 0xcc, 0x0a, 0xf2, 
0x17, 0xf8, 0xc0, 0xee, 0x29, 0x3e, 0xc4, 0xcc, 0xe7, 0x10, 0xd7, 0x0f, 
0x10, 0xdb, 0x0c, 0xfa, 0x12, 0xf9, 0x0a, 0x10, 0x29, 0x77, 0xbf, 0xd1, 
0xe5, 0x17, 0xdb, 0x0c, 0x18, 0xe9, 0x1d, 0xfc, 0x2c, 0x04, 0x02, 0x0c, 
0x2c, 0x4a, 0xd3, 0x8c, 0xb0, 0x14, 0xbd, 0x08, 0x02, 0xe1, 0x1c, 0xff, 
0x1b, 0x09, 0xc2, 0xfa, 0x1f, 0x7f, 0xe1, 0xca, 0xa5, 0x0e, 0xac, 0x11, 
0x16, 0xdc, 0x18, 0x04, 0x21, 0x05, 0xb7, 0xf2, 0x11, 0xee, 0x25, 0x21, 
0x48, 0x27, 0x7a, 0x11, 0x18, 0x3b, 0x1e, 0x05, 0x19, 0x00, 0x4c, 0x12, 
0x06, 0xb6, 0x14, 0x27, 0x53, 0x24, 0x7c, 0x1d, 0x1b, 0x29, 0x16, 0xf9, 
0x0f, 0xf6, 0x4b, 0x08, 0x14, 0xe2, 0x1d, 0x22, 0x73, 0x18, 0x7f, 0x1f, 
0x26, 0x5e, 0x10, 0x0e, 0x12, 0x07, 0xd1, 0x13, 0x10, 0xaf, 0x24, 0x23, 
0x5e, 0x22, 0x73, 0x13, 0x18, 0x42, 0xf4, 0xf2, 0xfa, 0x08, 0xa0, 0x13, 
0xc2, 0xea, 0x04, 0x15, 0x51, 0x02, 0x20, 0xf8, 0xc3, 0x1f, 0xf2, 0x12, 
0xfb, 0xfa, 0x49, 0x0b, 0xc4, 0xa3, 0xf3, 0x19, 0x59, 0x18, 0x58, 0x05, 
0xeb, 0x0e, 0xf8, 0x1d, 0xf0, 0xfd, 0x53, 0x0b, 0xbe, 0xd3, 0x08, 0x1f, 
0x2f, 0x08, 0x0e, 0xfa, 0xd7, 0x39, 0xf0, 0x05, 0xe9, 0x08, 0x14, 0x0a, 
0xb0, 0x81, 0xfd, 0x1f, 0x51, 0x08, 0x41, 0x01, 0xd1, 0x17, 0xf5, 0x1e, 
0xe3, 0xfd, 0x31, 0xf2, 0x09, 0x39, 0xb3, 0xdd, 0xf2, 0xfb, 0xec, 0x03, 
0xf6, 0xed, 0x0f, 0x05, 0x12, 0xf8, 0x12, 0x10, 0x23, 0x60, 0xc0, 0xdb, 
0xe2, 0x16, 0xdf, 0x11, 0x08, 0xe8, 0x1d, 0x00, 0x20, 0x01, 0x05, 0x0a, 
0x15, 0x4e, 0xd2, 0xa9, 0xcb, 0x04, 0xc1, 0x0b, 0xfc, 0xed, 0x16, 0xfe, 
0x16, 0xff, 0xec, 0xe2, 0x1c, 0x7f, 0xe9, 0xce, 0x9d, 0x08, 0xa0, 0xfe, 
0x14, 0xd3, 0x23, 0xee, 0x1a, 0xf8, 0xde, 0xf0, 0x09, 0x3e, 0xc0, 0xe9, 
0xf2, 0x02, 0xe9, 0x01, 0xf5, 0xe5, 0x18, 0x01, 0x10, 0x01, 0xf9, 0x0d, 
0x1f, 0x6b, 0xc3, 0xcd, 0xd7, 0x0c, 0xd5, 0x0a, 0x0f, 0xe6, 0x11, 0xf9, 
0x27, 0xff, 0xfb, 0x0d, 0x0e, 0x4a, 0xcc, 0x91, 0xc7, 0x08, 0xce, 0xff, 
0x02, 0xe7, 0x16, 0x00, 0x1a, 0x04, 0xcc, 0xff, 0x24, 0x7f, 0xf1, 0xbe, 
0xa7, 0x0a, 0xbc, 0x09, 0x09, 0xd5, 0x11, 0xf8, 0x20, 0xf8, 0xc6, 0x11, 
0x2a, 0x4e, 0xb3, 0xdc, 0x07, 0x06, 0xe9, 0x01, 0xf7, 0xe2, 0x1c, 0x07, 
0x1c, 0xfb, 0x11, 0x0f, 0x24, 0x77, 0xc0, 0xdc, 0xf0, 0x17, 0xe1, 0xfc, 
0x0f, 0xe7, 0x20, 0xfd, 0x2d, 0xfc, 0x0a, 0x15, 0x28, 0x45, 0xd6, 0x87, 
0xd2, 0x06, 0xb2, 0x08, 0xfa, 0xf6, 0x15, 0xf3, 0x0c, 0x09, 0xb3, 0xd2, 
0x1b, 0x7f, 0xf7, 0xbb, 0xbd, 0x0d, 0xad, 0xfd, 0xfd, 0xd4, 0x15, 0xfc, 
0x25, 0x09, 0xc0, 0xdc, 0xc1, 0xef, 0x28, 0x3c, 0x63, 0x03, 0x38, 0x0e, 
0xec, 0x19, 0xf7, 0xf5, 0xfc, 0x02, 0x62, 0x1c, 0xbc, 0x8d, 0x1c, 0x28, 
0x5d, 0x19, 0x44, 0x0f, 0xe8, 0x02, 0xff, 0x11, 0xf0, 0x0e, 0x69, 0x1a, 
0xd6, 0xf2, 0x2a, 0x35, 0x75, 0x16, 0x53, 0x10, 0x04, 0x41, 0xfa, 0xfc, 
0x04, 0x04, 0x4e, 0x0f, 0xc8, 0x81, 0x21, 0x1f, 0x7f, 0xfe, 0x5d, 0x18, 
0xf0, 0x1d, 0xf4, 0x08, 0xf8, 0x04, 0x52, 0xf9, 0x0b, 0x40, 0xb0, 0xe1, 
0x08, 0xff, 0xd5, 0x02, 0xf9, 0xd9, 0x17, 0x03, 0x1c, 0xf8, 0x02, 0x0e, 
0x1d, 0x63, 0xb9, 0xe8, 0xeb, 0x07, 0xeb, 0xfe, 0x0b, 0xdd, 0x1e, 0xf9, 
0x1c, 0x07, 0x0e, 0x14, 0x06, 0x4d, 0xdb, 0x93, 0xec, 0x09, 0xc0, 0xfc, 
0xf8, 0xd8, 0x0f, 0x02, 0x0e, 0x02, 0xbf, 0xe3, 0x06, 0x7f, 0xef, 0xc4, 
0xc3, 0x03, 0xb9, 0x00, 0xfd, 0xc3, 0x1f, 0xec, 0x1a, 0xff, 0xb3, 0xe4, 
0xfd, 0x31, 0xb7, 0xf8, 0xf5, 0x0c, 0xda, 0x07, 0x06, 0xd4, 0x22, 0x0a, 
0x24, 0x04, 0x05, 0x10, 0x12, 0x54, 0xc1, 0xf8, 0xe3, 0x03, 0xc1, 0xe4, 
0x08, 0xde, 0x22, 0xfc, 0x1b, 0xfc, 0xff, 0x0e, 0xe9, 0x4b, 0xd5, 0xb8, 
0xce, 0xfa, 0xcb, 0xee, 0x01, 0xdd, 0x2e, 0xfd, 0x16, 0xfb, 0x0c, 0xe7, 
0xee, 0x7f, 0xf0, 0x95, 0x9e, 0xef, 0x9d, 0xcd, 0xfd, 0xbe, 0x29, 0xf2, 
0x1c, 0xfc, 0xf8, 0xe8, 0x16, 0x49, 0xc0, 0xea, 0x00, 0x01, 0xef, 0xfc, 
0xfe, 0xef, 0x13, 0x04, 0x20, 0x02, 0x10, 0x14, 0x1b, 0x73, 0xbf, 0xc1, 
0xe9, 0x0d, 0xde, 0xfd, 0x12, 0xf7, 0x1e, 0x05, 0x35, 0x06, 0x0a, 0x0e, 
0x11, 0x49, 0xd1, 0x8e, 0xdc, 0x13, 0xd3, 0xee, 0xfc, 0xef, 0x1d, 0x04, 
0x16, 0xfc, 0xbe, 0xe4, 0x20, 0x7f, 0xf0, 0xaa, 0xad, 0x0b, 0xbc, 0xfd, 
0x0c, 0xe6, 0x05, 0xf4, 0x1f, 0xfb, 0xc7, 0xe3, 0x0c, 0xd2, 0xc0, 0xf3, 
0xf7, 0x09, 0xed, 0x06, 0x06, 0xdf, 0x13, 0xd0, 0xdf, 0xfe, 0x1e, 0xf0, 
0x17, 0x28, 0xc3, 0x1c, 0x00, 0x18, 0x1b, 0x19, 0x1b, 0xec, 0x22, 0x08, 
0x08, 0x02, 0x1c, 0x0a, 0x06, 0xf3, 0xb9, 0xcc, 0xcb, 0x08, 0xb5, 0x09, 
0x00, 0xf6, 0x0b, 0xbc, 0x81, 0x03, 0xf3, 0xd3, 0x12, 0x47, 0xdd, 0x25, 
0xf8, 0x16, 0xfa, 0x0f, 0x10, 0xfd, 0x35, 0xfa, 0xfd, 0x06, 0x01, 0xf9, 
0xfb, 0xe8, 0x27, 0x30, 0x56, 0x1b, 0x69, 0xff, 0x18, 0x38, 0x2a, 0xd5, 
0xfe, 0x08, 0x59, 0x18, 0xfc, 0xb7, 0x12, 0x32, 0x61, 0x19, 0x7c, 0xf6, 
0x09, 0x23, 0x22, 0xbd, 0x03, 0x0b, 0x67, 0x0e, 0x01, 0xe9, 0x35, 0x2d, 
0x79, 0x24, 0x73, 0x07, 0x20, 0x5d, 0x2d, 0xe7, 0x17, 0xf6, 0x4c, 0x1e, 
0x00, 0xaa, 0x20, 0x2f, 0x6c, 0x1d, 0x7f, 0x11, 0x1d, 0x35, 0x1f, 0xdf, 
0x08, 0xfc, 0x4c, 0x18, 0x25, 0x42, 0xca, 0xc8, 0xe5, 0x11, 0xd4, 0x13, 
0x05, 0xe3, 0xfb, 0x00, 0x19, 0x05, 0x05, 0x0e, 0x28, 0x6a, 0xcb, 0xd3, 
0xd4, 0x10, 0xd3, 0x08, 0x18, 0xe8, 0x0b, 0x01, 0x34, 0xfe, 0xfd, 0x15, 
0x2b, 0x3c, 0xcc, 0xa6, 0xb8, 0x14, 0xc8, 0x0d, 0x0c, 0xe5, 0x0a, 0xff, 
0x0f, 0xf6, 0xd9, 0x14, 0x25, 0x7f, 0xec, 0xc4, 0xa9, 0x13, 0xc7, 0x14, 
0x07, 0xe3, 0x1c, 0xfd, 0x29, 0x09, 0xce, 0x15, 0x43, 0x54, 0xd2, 0xc9, 
0xf6, 0x11, 0x0e, 0x0f, 0x21, 0x0f, 0x08, 0x0a, 0x19, 0x03, 0xee, 0x16, 
0x3e, 0x7f, 0xd3, 0xbc, 0xf2, 0x12, 0x06, 0x16, 0x27, 0x14, 0x1b, 0x14, 
0x44, 0x09, 0xea, 0x22, 0x4e, 0x37, 0xe1, 0x8a, 0xdb, 0x0b, 0xf3, 0x04, 
0x1f, 0x1e, 0x04, 0x01, 0x1f, 0x00, 0xd9, 0x1a, 0x45, 0x76, 0xef, 0xb0, 
0xcb, 0x10, 0xe9, 0x0a, 0x1f, 0xf3, 0x08, 0x0c, 0x3b, 0xfc, 0xe4, 0x21, 
0x13, 0xf1, 0x1b, 0x22, 0x5b, 0x26, 0x7a, 0x15, 0x21, 0x42, 0x18, 0xf7, 
0x1a, 0xf7, 0x37, 0x0e, 0x0a, 0xc8, 0x17, 0x18, 0x5d, 0x1e, 0x7f, 0x14, 
0x1d, 0x33, 0x12, 0x04, 0x07, 0xff, 0x3d, 0x0b, 0x0d, 0xde, 0x1f, 0x1a, 
0x63, 0x21, 0x77, 0x0e, 0x1d, 0x60, 0x0f, 0x0d, 0x11, 0xf8, 0xde, 0x0f, 
0x10, 0xb7, 0x15, 0x18, 0x5a, 0x1a, 0x70, 0x16, 0x22, 0x42, 0xef, 0x00, 
0x08, 0xfd, 0xaa, 0x0d, 0x32, 0x23, 0xbd, 0xf3, 0xfb, 0x11, 0xf4, 0x0c, 
0x17, 0xe0, 0x1f, 0xf5, 0x12, 0x07, 0x3b, 0xed, 0x16, 0x52, 0xd3, 0xf9, 
0xf8, 0x09, 0xfd, 0x1e, 0x38, 0x1b, 0x25, 0x08, 0x1f, 0x0a, 0x0e, 0x0c, 
0x23, 0x2b, 0xe1, 0xba, 0xc8, 0x09, 0x81, 0x01, 0x10, 0xfc, 0x13, 0xda, 
0xd0, 0x03, 0xba, 0xa9, 0xcf, 0x5f, 0x1d, 0xe1, 0xe1, 0xd5, 0xf9, 0xb9, 
0x10, 0x09, 0x29, 0x08, 0x14, 0x03, 0xb8, 0xdf, 0x33, 0x50, 0xd3, 0xd1, 
0xe7, 0x09, 0xe9, 0x09, 0x0e, 0x0d, 0x07, 0x09, 0x12, 0xfa, 0xf8, 0x10, 
0x46, 0x7f, 0xce, 0xbc, 0xda, 0x18, 0xe0, 0x08, 0x22, 0xf6, 0x13, 0x0d, 
0x3e, 0x0a, 0xee, 0x1d, 0x34, 0x3e, 0xcb, 0x9d, 0xc8, 0x16, 0xd7, 0xfc, 
0x0c, 0x0e, 0x16, 0x04, 0x0b, 0x05, 0xc6, 0x0e, 0x31, 0x76, 0xe5, 0xba, 
0xc7, 0x15, 0xd2, 0x11, 0x20, 0xdf, 0x12, 0x08, 0x34, 0x02, 0xc3, 0x1e, 
0xe8, 0x3d, 0xe8, 0x2f, 0xaf, 0x07, 0xb1, 0x0d, 0x0b, 0xbd, 0x3d, 0xfe, 
0x10, 0xfc, 0x5d, 0x32, 0xeb, 0x3b, 0xf4, 0x39, 0xaf, 0xfc, 0x96, 0xe7, 
0xf7, 0xb6, 0x2f, 0xce, 0xe2, 0xfe, 0x61, 0x37, 0xe1, 0x3f, 0xf6, 0x40, 
0xb6, 0x09, 0xa9, 0x00, 0xf5, 0xc0, 0x4e, 0xf7, 0x0c, 0x07, 0x7f, 0x38, 
0xd4, 0x33, 0xf8, 0x34, 0xb5, 0xea, 0x9e, 0xcb, 0xf2, 0xc0, 0x54, 0xd5, 
0xee, 0x06, 0x77, 0x30, 0x9e, 0xfa, 0xff, 0xff, 0x04, 0x00, 0x00, 0x00, 
0x80, 0x00, 0x00, 0x00, 0x56, 0xf8, 0xff, 0xff, 0x54, 0xfd, 0xff, 0xff, 
0xb5, 0xf9, 0xff, 0xff, 0x36, 0xff, 0xff, 0xff, 0x7d, 0xfe, 0xff, 0xff, 
0x87, 0xff, 0xff, 0xff, 0x4c, 0xfd, 0xff, 0xff, 0x75, 0xfe, 0xff, 0xff, 
0xd2, 0xfe, 0xff, 0xff, 0x1c, 0x06, 0x00, 0x00, 0x50, 0xff, 0xff, 0xff, 
0x64, 0x08, 0x00, 0x00, 0x95, 0xff, 0xff, 0xff, 0x46, 0xff, 0xff, 0xff, 
0x38, 0xff, 0xff, 0xff, 0x23, 0xf4, 0xff, 0xff, 0x2c, 0x08, 0x00, 0x00, 
0x94, 0xff, 0xff, 0xff, 0xd9, 0xfe, 0xff, 0xff, 0x5e, 0xff, 0xff, 0xff, 
0xd6, 0x07, 0x00, 0x00, 0x8d, 0xff, 0xff, 0xff, 0x90, 0xff, 0xff, 0xff, 
0x87, 0xff, 0xff, 0xff, 0xd1, 0xff, 0xff, 0xff, 0xdd, 0xf2, 0xff, 0xff, 
0xc7, 0xfd, 0xff, 0xff, 0xd3, 0xfb, 0xff, 0xff, 0xf2, 0xf5, 0xff, 0xff, 
0xbe, 0xff, 0xff, 0xff, 0xb2, 0xfc, 0xff, 0xff, 0x8c, 0xfc, 0xff, 0xff, 
0x2a, 0xfb, 0xff, 0xff, 0x04, 0x00, 0x00, 0x00, 0x00, 0x04, 0x00, 0x00, 
0xe4, 0xa9, 0xea, 0x8f, 0x2d, 0x22, 0xc3, 0x09, 0xc0, 0x15, 0x47, 0x3b, 
0x30, 0xcb, 0x5e, 0xdb, 0xed, 0x16, 0xde, 0x8e, 0x0f, 0x08, 0x01, 0xa0, 
0x81, 0x11, 0x15, 0x9d, 0xa5, 0x33, 0xba, 0x2f, 0x6c, 0x69, 0xef, 0x08, 
0x53, 0xdb, 0x1d, 0x83, 0x45, 0x21, 0xf3, 0x81, 0xb7, 0x2f, 0x89, 0x2a, 
0xf6, 0xcb, 0x45, 0x70, 0xa5, 0x61, 0x14, 0x6c, 0x66, 0x9d, 0xd5, 0x9b, 
0x8c, 0xea, 0x9d, 0xac, 0xc3, 0xff, 0xf5, 0x1c, 0x26, 0x31, 0x00, 0x22, 
0x12, 0x1d, 0x7f, 0xea, 0x59, 0x1c, 0x08, 0xb7, 0x08, 0x28, 0x14, 0x21, 
0xf9, 0x1a, 0x36, 0x1f, 0x48, 0xdc, 0x1d, 0xf0, 0xaf, 0x32, 0xf5, 0x31, 
0xcf, 0x04, 0x01, 0x16, 0x0f, 0x32, 0x03, 0x28, 0x15, 0x02, 0x7f, 0xf4, 
0x40, 0x19, 0x15, 0xd3, 0x0d, 0x20, 0x0d, 0x29, 0xf5, 0x21, 0x2b, 0x12, 
0x4e, 0xcc, 0x06, 0x09, 0xbd, 0x27, 0x02, 0x25, 0x47, 0x29, 0x32, 0xfe, 
0xef, 0xf2, 0x09, 0x19, 0x18, 0x03, 0x81, 0x01, 0xb4, 0x0a, 0xfb, 0x36, 
0x07, 0x0b, 0x1a, 0x14, 0xed, 0xf1, 0xef, 0x0f, 0xd0, 0x15, 0x26, 0x1b, 
0x3b, 0xe6, 0x2a, 0xbc, 0x18, 0xd1, 0xe1, 0xe9, 0xdb, 0xd5, 0xcf, 0xe6, 
0xde, 0x2b, 0xa7, 0x0e, 0xd7, 0xd3, 0xd6, 0x6c, 0x1e, 0xe0, 0xc2, 0xd4, 
0x38, 0xdf, 0xee, 0xd9, 0xa7, 0x7f, 0xc6, 0xdd, 0x62, 0xa9, 0xd3, 0x02, 
0x35, 0x02, 0x0c, 0xfa, 0xe9, 0xce, 0x05, 0xee, 0xf0, 0x08, 0x81, 0x26, 
0xba, 0xea, 0x01, 0x23, 0x13, 0xf3, 0xf7, 0xdf, 0x15, 0xe2, 0xd0, 0xfe, 
0xb1, 0x0c, 0x02, 0xfb, 0x2d, 0xd3, 0xf6, 0xc6, 0x2a, 0xab, 0x25, 0x1c, 
0x3f, 0x50, 0xe3, 0x33, 0xf2, 0xa8, 0xb9, 0x9b, 0xe6, 0x81, 0xe1, 0x1f, 
0xb1, 0x6f, 0x36, 0xea, 0x5d, 0x9f, 0xf3, 0xb8, 0x4b, 0x0a, 0xd0, 0x32, 
0xdf, 0xd1, 0xbf, 0x84, 0x78, 0x84, 0xcf, 0x06, 0x81, 0x3b, 0x5b, 0x1c, 
0x76, 0xc5, 0xd4, 0x35, 0x81, 0xba, 0x88, 0xaf, 0x88, 0x94, 0xa0, 0x0f, 
0x7a, 0xe3, 0xd6, 0xa9, 0x97, 0xf6, 0xdd, 0xed, 0x42, 0x76, 0xb0, 0x46, 
0xd1, 0x16, 0xf4, 0x1e, 0x14, 0x24, 0x15, 0x0e, 0x01, 0xf9, 0x7f, 0x07, 
0x38, 0x2a, 0x09, 0xbf, 0xfa, 0x24, 0x05, 0x17, 0xf9, 0x1e, 0x29, 0x24, 
0x5c, 0xd7, 0x16, 0x04, 0xcc, 0x4a, 0x14, 0x2b, 0x35, 0xc7, 0x25, 0xee, 
0x81, 0x3b, 0xe2, 0xfa, 0x46, 0xc3, 0x9f, 0xfa, 0xf6, 0xed, 0xf6, 0xa9, 
0xdb, 0xb6, 0xcd, 0x37, 0x7a, 0xbc, 0x27, 0x84, 0xa6, 0x49, 0xe6, 0xfa, 
0xa5, 0x5c, 0xde, 0xa1, 0xd3, 0x15, 0x02, 0x07, 0x2d, 0x1a, 0x1b, 0x2e, 
0x1e, 0xf8, 0x7f, 0xff, 0x5c, 0x0d, 0x25, 0xae, 0x00, 0x24, 0x1f, 0x17, 
0x13, 0x13, 0x38, 0x27, 0x4e, 0xcf, 0x14, 0xf8, 0xa6, 0x30, 0x0e, 0x30, 
0xba, 0x0e, 0xef, 0x00, 0x2c, 0x32, 0xfb, 0x09, 0x1b, 0x0b, 0x7f, 0x09, 
0x57, 0x17, 0x1d, 0xc6, 0x18, 0x16, 0x1b, 0x1d, 0x0d, 0x23, 0x19, 0x08, 
0x56, 0xb2, 0xff, 0xf9, 0xad, 0x50, 0xfd, 0x2c, 0x3d, 0x85, 0xd3, 0xf0, 
0xd8, 0x94, 0x21, 0x19, 0xe8, 0x89, 0xbc, 0x9e, 0xb3, 0x52, 0x66, 0x3e, 
0x17, 0x41, 0x9f, 0xbb, 0x91, 0x64, 0xa9, 0xaa, 0x60, 0x6c, 0x81, 0x84, 
0xba, 0x58, 0x41, 0x03, 0x1e, 0xec, 0x01, 0xf7, 0xf6, 0xee, 0xf2, 0xf1, 
0x06, 0x06, 0x81, 0x20, 0xaf, 0xe6, 0xf7, 0x45, 0x09, 0xde, 0xe5, 0xe3, 
0x0c, 0xdd, 0xe0, 0xfb, 0x98, 0x25, 0xe8, 0xf1, 0x43, 0xbd, 0x02, 0xe4, 
0x40, 0x02, 0x20, 0xf5, 0x09, 0xe3, 0x0e, 0x15, 0x08, 0xf0, 0x81, 0x1d, 
0xa7, 0x08, 0x02, 0x33, 0xf6, 0xf3, 0x13, 0x0f, 0x0e, 0x08, 0xde, 0xf9, 
0xb4, 0x11, 0x0b, 0x23, 0x42, 0xe7, 0xff, 0xd5, 0x06, 0xb6, 0xbd, 0x9d, 
0xbf, 0x9d, 0xbd, 0xbc, 0xc5, 0x0c, 0x81, 0x27, 0xeb, 0xc8, 0xe7, 0x45, 
0x25, 0xd6, 0xb9, 0xaf, 0x37, 0xd8, 0xbb, 0xaf, 0xcd, 0x5a, 0xde, 0xc1, 
0x67, 0xc8, 0xcf, 0x16, 0x3e, 0xd1, 0xf8, 0x6e, 0x01, 0xda, 0x38, 0xbe, 
0x34, 0xae, 0xa0, 0xef, 0xd2, 0x9f, 0x98, 0x36, 0x17, 0x8e, 0xe6, 0xfd, 
0x1b, 0xa0, 0x33, 0xc6, 0xa4, 0x03, 0x22, 0xf5, 0x61, 0xd4, 0x81, 0x0d, 
0xa5, 0x2e, 0x68, 0x9e, 0x3e, 0x93, 0x4c, 0x81, 0x1b, 0x23, 0xbb, 0xb5, 
0x95, 0xdd, 0xac, 0x5d, 0xdb, 0x91, 0xa1, 0x5c, 0xdc, 0x94, 0xc4, 0x35, 
0x51, 0xc3, 0x74, 0x4b, 0xd6, 0x1c, 0x1f, 0x22, 0xd7, 0xa9, 0xe5, 0xb8, 
0xd0, 0xa9, 0xe6, 0xd1, 0x82, 0x9c, 0xa6, 0x55, 0x09, 0xf9, 0x44, 0xf9, 
0xf7, 0x5b, 0xc1, 0xbd, 0x48, 0x0d, 0x6f, 0xb8, 0xb3, 0xcf, 0xdc, 0x47, 
0x55, 0x81, 0xa8, 0xd5, 0x89, 0xb6, 0x9d, 0xcf, 0xbe, 0xca, 0xac, 0xa3, 
0xb6, 0x33, 0xf2, 0xf5, 0xf6, 0xc8, 0xba, 0x52, 0x28, 0xbb, 0xb9, 0xc7, 
0x42, 0xe3, 0x05, 0xbf, 0xe1, 0x7f, 0xa3, 0x89, 0x40, 0xc3, 0x8e, 0x40, 
0xa4, 0xaf, 0x94, 0xb3, 0xa6, 0xf1, 0xa2, 0xb4, 0xa7, 0x27, 0x04, 0x17, 
0x06, 0xb8, 0xd0, 0x59, 0x05, 0xb4, 0xbb, 0xb4, 0x37, 0xec, 0x14, 0xbb, 
0xfa, 0x7f, 0xc6, 0x93, 0x44, 0xbc, 0x95, 0x39, 0x08, 0x03, 0x9f, 0xb9, 
0xa5, 0xac, 0x52, 0x18, 0x6d, 0xa8, 0xaf, 0xea, 0x9e, 0x92, 0x5e, 0x4b, 
0x48, 0x05, 0x81, 0xb0, 0x06, 0x2c, 0x1f, 0x9d, 0x46, 0x21, 0xaa, 0x55, 
0xaa, 0x23, 0xd2, 0x37, 0xee, 0x81, 0x89, 0x91, 0xd0, 0xaa, 0x32, 0x11, 
0x24, 0xf0, 0xa7, 0x8d, 0xdb, 0x9c, 0x24, 0xd4, 0x01, 0x92, 0xbc, 0x50, 
0x33, 0xc6, 0x52, 0x81, 0x9f, 0x66, 0x25, 0xa9, 0x2c, 0xf9, 0x07, 0x1a, 
0x99, 0xa7, 0x93, 0xd6, 0xbd, 0xec, 0xaa, 0xb9, 0xc8, 0x23, 0xf5, 0x04, 
0xf6, 0xd2, 0xb4, 0x57, 0x21, 0xdc, 0xde, 0xb6, 0x39, 0xd9, 0xed, 0xc2, 
0xc9, 0x7f, 0xbd, 0x9f, 0x5a, 0xc2, 0x9e, 0x2d, 0xa0, 0xb8, 0x81, 0x40, 
0x2b, 0xc4, 0x3a, 0xd9, 0xea, 0xb6, 0x14, 0xe8, 0xd0, 0x2c, 0x1c, 0x27, 
0xde, 0xd9, 0xf3, 0xa3, 0x45, 0x33, 0x01, 0x41, 0x13, 0x01, 0x35, 0xa4, 
0x50, 0x26, 0xf6, 0x00, 0x05, 0x14, 0x18, 0xe9, 0xf4, 0x56, 0xdc, 0xf0, 
0xb2, 0x84, 0x87, 0xe0, 0x15, 0xa4, 0x42, 0xd3, 0x29, 0xf3, 0xb1, 0x1f, 
0x16, 0x81, 0xf6, 0x23, 0x6e, 0x33, 0xe3, 0xe1, 0xe4, 0x4c, 0x73, 0x13, 
0xd7, 0xb4, 0xad, 0xcc, 0xb6, 0xcc, 0xd2, 0xb2, 0x9c, 0x23, 0xb6, 0x2b, 
0xf5, 0xb1, 0xce, 0x5c, 0x12, 0xcc, 0xc2, 0xad, 0x14, 0xec, 0xdc, 0xc0, 
0xb2, 0x78, 0xc3, 0xc1, 0x58, 0x81, 0xb8, 0x2f, 0x31, 0xfb, 0x12, 0xdc, 
0xcb, 0xd5, 0x06, 0xf2, 0xd9, 0x22, 0x81, 0x23, 0x95, 0xcc, 0xeb, 0x50, 
0x22, 0xe2, 0xe5, 0xbe, 0x21, 0xc0, 0xba, 0xc5, 0x83, 0x36, 0xfb, 0xff, 
0x3b, 0xad, 0xec, 0xcd, 0x3c, 0x81, 0xed, 0x8d, 0xd0, 0xaf, 0xbf, 0x82, 
0x28, 0xc3, 0xc4, 0xa9, 0x18, 0xd6, 0x14, 0xeb, 0xd3, 0x3b, 0x53, 0x89, 
0x8f, 0x91, 0x43, 0x03, 0x62, 0x34, 0x22, 0xbb, 0x58, 0x2c, 0x55, 0x45, 
0x37, 0xa4, 0x3a, 0x81, 0x22, 0x1e, 0x21, 0x24, 0x3e, 0xb4, 0x1f, 0xfb, 
0x27, 0x9f, 0xda, 0xe3, 0x89, 0xc2, 0xfd, 0x0a, 0x3f, 0xfc, 0x0f, 0xb0, 
0x02, 0x4f, 0xc0, 0x07, 0x93, 0x25, 0x4a, 0xfb, 0xc1, 0x39, 0x98, 0x68, 
0x19, 0x72, 0xca, 0xf5, 0x33, 0xfe, 0x21, 0x81, 0xd1, 0xaf, 0x1e, 0x23, 
0x15, 0xb4, 0xb1, 0xae, 0x85, 0x59, 0x99, 0x89, 0x35, 0xfe, 0x03, 0x6b, 
0x4d, 0x1c, 0xca, 0x4c, 0x36, 0xff, 0xff, 0xff, 0x04, 0x00, 0x00, 0x00, 
0x80, 0x00, 0x00, 0x00, 0x66, 0xd2, 0xff, 0xff, 0xc0, 0xf8, 0xff, 0xff, 
0x7e, 0x05, 0x00, 0x00, 0x06, 0x06, 0x00, 0x00, 0xf9, 0x0c, 0x00, 0x00, 
0xa3, 0x17, 0x00, 0x00, 0x4a, 0x14, 0x00, 0x00, 0xb8, 0xf8, 0xff, 0xff, 
0x62, 0xf1, 0xff, 0xff, 0xbe, 0x04, 0x00, 0x00, 0x83, 0xef, 0xff, 0xff, 
0x93, 0x05, 0x00, 0x00, 0x02, 0x00, 0x00, 0x00, 0x9c, 0xf0, 0xff, 0xff, 
0x9b, 0x17, 0x00, 0x00, 0x49, 0x0a, 0x00, 0x00, 0x7e, 0x17, 0x00, 0x00, 
0xcf, 0xf4, 0xff, 0xff, 0xd6, 0xec, 0xff, 0xff, 0xaf, 0xef, 0xff, 0xff, 
0xe7, 0x0d, 0x00, 0x00, 0x9a, 0x0e, 0x00, 0x00, 0x4a, 0xf3, 0xff, 0xff, 
0xd8, 0xee, 0xff, 0xff, 0x8e, 0x0e, 0x00, 0x00, 0x21, 0xf7, 0xff, 0xff, 
0x72, 0xf4, 0xff, 0xff, 0xbc, 0x18, 0x00, 0x00, 0x4a, 0x18, 0x00, 0x00, 
0x58, 0x02, 0x00, 0x00, 0x31, 0xda, 0xff, 0xff, 0xbc, 0xed, 0xff, 0xff, 
0xc2, 0xff, 0xff, 0xff, 0x04, 0x00, 0x00, 0x00, 0x20, 0x00, 0x00, 0x00, 
0x07, 0xf8, 0x1a, 0x16, 0xd9, 0xb9, 0xa2, 0xfc, 0x01, 0x12, 0x00, 0x16, 
0x15, 0x00, 0xb8, 0xd0, 0xb6, 0x07, 0x02, 0x04, 0x81, 0x89, 0xfe, 0x07, 
0x83, 0xfa, 0xfa, 0xa7, 0xb5, 0xfb, 0xff, 0xfd, 0xee, 0xff, 0xff, 0xff, 
0x04, 0x00, 0x00, 0x00, 0x04, 0x00, 0x00, 0x00, 0x5d, 0x00, 0x00, 0x00, 
0x00, 0x00, 0x06, 0x00, 0x08, 0x00, 0x04, 0x00, 0x06, 0x00, 0x00, 0x00, 
0x04, 0x00, 0x00, 0x00, 0x08, 0x00, 0x00, 0x00, 0x01, 0x00, 0x00, 0x00, 
0x02, 0x00, 0x00, 0x00, 0x4c, 0xee, 0xff, 0xff, 0x50, 0xee, 0xff, 0xff, 
0x0f, 0x00, 0x00, 0x00, 0x4d, 0x4c, 0x49, 0x52, 0x20, 0x43, 0x6f, 0x6e, 
0x76, 0x65, 0x72, 0x74, 0x65, 0x64, 0x2e, 0x00, 0x01, 0x00, 0x00, 0x00, 
0x14, 0x00, 0x00, 0x00, 0x00, 0x00, 0x0e, 0x00, 0x18, 0x00, 0x14, 0x00, 
0x10, 0x00, 0x0c, 0x00, 0x08, 0x00, 0x04, 0x00, 0x0e, 0x00, 0x00, 0x00, 
0x14, 0x00, 0x00, 0x00, 0x1c, 0x00, 0x00, 0x00, 0xfc, 0x01, 0x00, 0x00, 
0x00, 0x02, 0x00, 0x00, 0x04, 0x02, 0x00, 0x00, 0x04, 0x00, 0x00, 0x00, 
0x6d, 0x61, 0x69, 0x6e, 0x00, 0x00, 0x00, 0x00, 0x07, 0x00, 0x00, 0x00, 
0x98, 0x01, 0x00, 0x00, 0x34, 0x01, 0x00, 0x00, 0xe4, 0x00, 0x00, 0x00, 
0xb0, 0x00, 0x00, 0x00, 0x6c, 0x00, 0x00, 0x00, 0x34, 0x00, 0x00, 0x00, 
0x10, 0x00, 0x00, 0x00, 0x00, 0x00, 0x0a, 0x00, 0x10, 0x00, 0x0c, 0x00, 
0x08, 0x00, 0x04, 0x00, 0x0a, 0x00, 0x00, 0x00, 0x0c, 0x00, 0x00, 0x00, 
0x10, 0x00, 0x00, 0x00, 0x04, 0x00, 0x00, 0x00, 0x01, 0x00, 0x00, 0x00, 
0x10, 0x00, 0x00, 0x00, 0x01, 0x00, 0x00, 0x00, 0x0f, 0x00, 0x00, 0x00, 
0x1e, 0xff, 0xff, 0xff, 0x14, 0x00, 0x00, 0x00, 0x00, 0x00, 0x00, 0x08, 
0x10, 0x00, 0x00, 0x00, 0x14, 0x00, 0x00, 0x00, 0x03, 0x00, 0x00, 0x00, 
0x08, 0xef, 0xff, 0xff, 0x01, 0x00, 0x00, 0x00, 0x0f, 0x00, 0x00, 0x00, 
0x03, 0x00, 0x00, 0x00, 0x0e, 0x00, 0x00, 0x00, 0x03, 0x00, 0x00, 0x00, 
0x02, 0x00, 0x00, 0x00, 0x52, 0xff, 0xff, 0xff, 0x1c, 0x00, 0x00, 0x00, 
0x00, 0x00, 0x00, 0x08, 0x1c, 0x00, 0x00, 0x00, 0x20, 0x00, 0x00, 0x00, 
0x03, 0x00, 0x00, 0x00, 0x00, 0x00, 0x06, 0x00, 0x08, 0x00, 0x07, 0x00, 
0x06, 0x00, 0x00, 0x00, 0x00, 0x00, 0x00, 0x01, 0x01, 0x00, 0x00, 0x00, 
0x0e, 0x00, 0x00, 0x00, 0x03, 0x00, 0x00, 0x00, 0x0d, 0x00, 0x00, 0x00, 
0x05, 0x00, 0x00, 0x00, 0x04, 0x00, 0x00, 0x00, 0x92, 0xff, 0xff, 0xff, 
0x14, 0x00, 0x00, 0x00, 0x00, 0x00, 0x00, 0x1b, 0x10, 0x00, 0x00, 0x00, 
0x14, 0x00, 0x00, 0x00, 0x02, 0x00, 0x00, 0x00, 0x7c, 0xef, 0xff, 0xff, 
0x01, 0x00, 0x00, 0x00, 0x0d, 0x00, 0x00, 0x00, 0x02, 0x00, 0x00, 0x00, 
0x0c, 0x00, 0x00, 0x00, 0x01, 0x00, 0x00, 0x00, 0x62, 0xff, 0xff, 0xff, 
0x10, 0x00, 0x00, 0x00, 0x00, 0x00, 0x00, 0x01, 0x18, 0x00, 0x00, 0x00, 
0x1c, 0x00, 0x00, 0x00, 0x54, 0xff, 0xff, 0xff, 0x00, 0x00, 0x00, 0x01, 
0x01, 0x00, 0x00, 0x00, 0x01, 0x00, 0x00, 0x00, 0x01, 0x00, 0x00, 0x00, 
0x0c, 0x00, 0x00, 0x00, 0x03, 0x00, 0x00, 0x00, 0x0b, 0x00, 0x00, 0x00, 
0x07, 0x00, 0x00, 0x00, 0x06, 0x00, 0x00, 0x00, 0x00, 0x00, 0x0e, 0x00, 
0x1a, 0x00, 0x14, 0x00, 0x10, 0x00, 0x0c, 0x00, 0x0b, 0x00, 0x04, 0x00, 
0x0e, 0x00, 0x00, 0x00, 0x24, 0x00, 0x00, 0x00, 0x00, 0x00, 0x00, 0x05, 
0x34, 0x00, 0x00, 0x00, 0x38, 0x00, 0x00, 0x00, 0x01, 0x00, 0x00, 0x00, 
0x00, 0x00, 0x0e, 0x00, 0x18, 0x00, 0x17, 0x00, 0x10, 0x00, 0x0c, 0x00, 
0x08, 0x00, 0x04, 0x00, 0x0e, 0x00, 0x00, 0x00, 0x02, 0x00, 0x00, 0x00, 
0x02, 0x00, 0x00, 0x00, 0x02, 0x00, 0x00, 0x00, 0x02, 0x00, 0x00, 0x00, 
0x00, 0x00, 0x00, 0x01, 0x01, 0x00, 0x00, 0x00, 0x0b, 0x00, 0x00, 0x00, 
0x01, 0x00, 0x00, 0x00, 0x0a, 0x00, 0x00, 0x00, 0x00, 0x00, 0x0e, 0x00, 
0x14, 0x00, 0x00, 0x00, 0x10, 0x00, 0x0c, 0x00, 0x0b, 0x00, 0x04, 0x00, 
0x0e, 0x00, 0x00, 0x00, 0x1c, 0x00, 0x00, 0x00, 0x00, 0x00, 0x00, 0x01, 
0x24, 0x00, 0x00, 0x00, 0x28, 0x00, 0x00, 0x00, 0x0c, 0x00, 0x10, 0x00, 
0x00, 0x00, 0x0c, 0x00, 0x08, 0x00, 0x07, 0x00, 0x0c, 0x00, 0x00, 0x00, 
0x00, 0x00, 0x00, 0x01, 0x01, 0x00, 0x00, 0x00, 0x01, 0x00, 0x00, 0x00, 
0x01, 0x00, 0x00, 0x00, 0x0a, 0x00, 0x00, 0x00, 0x03, 0x00, 0x00, 0x00, 
0x00, 0x00, 0x00, 0x00, 0x09, 0x00, 0x00, 0x00, 0x08, 0x00, 0x00, 0x00, 
0x01, 0x00, 0x00, 0x00, 0x10, 0x00, 0x00, 0x00, 0x01, 0x00, 0x00, 0x00, 
0x00, 0x00, 0x00, 0x00, 0x11, 0x00, 0x00, 0x00, 0xa0, 0x0f, 0x00, 0x00, 
0x44, 0x0f, 0x00, 0x00, 0xcc, 0x0e, 0x00, 0x00, 0x68, 0x0e, 0x00, 0x00, 
0x94, 0x0c, 0x00, 0x00, 0xb8, 0x0a, 0x00, 0x00, 0xe4, 0x08, 0x00, 0x00, 
0x00, 0x07, 0x00, 0x00, 0xec, 0x05, 0x00, 0x00, 0xc8, 0x04, 0x00, 0x00, 
0xf4, 0x03, 0x00, 0x00, 0x58, 0x03, 0x00, 0x00, 0x64, 0x02, 0x00, 0x00, 
0xd0, 0x01, 0x00, 0x00, 0x1c, 0x01, 0x00, 0x00, 0x80, 0x00, 0x00, 0x00, 
0x04, 0x00, 0x00, 0x00, 0xba, 0xf0, 0xff, 0xff, 0x00, 0x00, 0x00, 0x01, 
0x18, 0x00, 0x00, 0x00, 0x20, 0x00, 0x00, 0x00, 0x3c, 0x00, 0x00, 0x00, 
0x11, 0x00, 0x00, 0x00, 0x00, 0x00, 0x00, 0x09, 0x50, 0x00, 0x00, 0x00, 
0x02, 0x00, 0x00, 0x00, 0xff, 0xff, 0xff, 0xff, 0x01, 0x00, 0x00, 0x00, 
0x9c, 0xf0, 0xff, 0xff, 0x08, 0x00, 0x00, 0x00, 0x10, 0x00, 0x00, 0x00, 
0x01, 0x00, 0x00, 0x00, 0x80, 0xff, 0xff, 0xff, 0xff, 0xff, 0xff, 0xff, 
0x01, 0x00, 0x00, 0x00, 0x00, 0x00, 0x80, 0x3b, 0x1b, 0x00, 0x00, 0x00, 
0x53, 0x74, 0x61, 0x74, 0x65, 0x66, 0x75, 0x6c, 0x50, 0x61, 0x72, 0x74, 
0x69, 0x74, 0x69, 0x6f, 0x6e, 0x65, 0x64, 0x43, 0x61, 0x6c, 0x6c, 0x5f, 
0x31, 0x3a, 0x30, 0x00, 0x02, 0x00, 0x00, 0x00, 0x01, 0x00, 0x00, 0x00, 
0x01, 0x00, 0x00, 0x00, 0x32, 0xf1, 0xff, 0xff, 0x00, 0x00, 0x00, 0x01, 
0x18, 0x00, 0x00, 0x00, 0x20, 0x00, 0x00, 0x00, 0x3c, 0x00, 0x00, 0x00, 
0x10, 0x00, 0x00, 0x00, 0x00, 0x00, 0x00, 0x09, 0x70, 0x00, 0x00, 0x00, 
0x02, 0x00, 0x00, 0x00, 0xff, 0xff, 0xff, 0xff, 0x01, 0x00, 0x00, 0x00, 
0x14, 0xf1, 0xff, 0xff, 0x08, 0x00, 0x00, 0x00, 0x10, 0x00, 0x00, 0x00, 
0x01, 0x00, 0x00, 0x00, 0x52, 0x00, 0x00, 0x00, 0x00, 0x00, 0x00, 0x00, 
0x01, 0x00, 0x00, 0x00, 0x8c, 0x41, 0xad, 0x3d, 0x38, 0x00, 0x00, 0x00, 
0x73, 0x65, 0x71, 0x75, 0x65, 0x6e, 0x74, 0x69, 0x61, 0x6c, 0x5f, 0x31, 
0x2f, 0x64, 0x65, 0x6e, 0x73, 0x65, 0x5f, 0x31, 0x5f, 0x32, 0x2f, 0x4d, 
0x61, 0x74, 0x4d, 0x75, 0x6c, 0x3b, 0x73, 0x65, 0x71, 0x75, 0x65, 0x6e, 
0x74, 0x69, 0x61, 0x6c, 0x5f, 0x31, 0x2f, 0x64, 0x65, 0x6e, 0x73, 0x65, 
0x5f, 0x31, 0x5f, 0x32, 0x2f, 0x41, 0x64, 0x64, 0x00, 0x00, 0x00, 0x00, 
0x02, 0x00, 0x00, 0x00, 0x01, 0x00, 0x00, 0x00, 0x01, 0x00, 0x00, 0x00, 
0xca, 0xf1, 0xff, 0xff, 0x00, 0x00, 0x00, 0x01, 0x18, 0x00, 0x00, 0x00, 
0x20, 0x00, 0x00, 0x00, 0x3c, 0x00, 0x00, 0x00, 0x0f, 0x00, 0x00, 0x00, 
0x00, 0x00, 0x00, 0x09, 0x88, 0x00, 0x00, 0x00, 0x02, 0x00, 0x00, 0x00, 
0xff, 0xff, 0xff, 0xff, 0x20, 0x00, 0x00, 0x00, 0xac, 0xf1, 0xff, 0xff, 
0x08, 0x00, 0x00, 0x00, 0x10, 0x00, 0x00, 0x00, 0x01, 0x00, 0x00, 0x00, 
0x80, 0xff, 0xff, 0xff, 0xff, 0xff, 0xff, 0xff, 0x01, 0x00, 0x00, 0x00, 
0xf1, 0xce, 0x83, 0x3b, 0x52, 0x00, 0x00, 0x00, 0x73, 0x65, 0x71, 0x75, 
0x65, 0x6e, 0x74, 0x69, 0x61, 0x6c, 0x5f, 0x31, 0x2f, 0x64, 0x65, 0x6e, 
0x73, 0x65, 0x5f, 0x31, 0x2f, 0x4d, 0x61, 0x74, 0x4d, 0x75, 0x6c, 0x3b, 
0x73, 0x65, 0x71, 0x75, 0x65, 0x6e, 0x74, 0x69, 0x61, 0x6c, 0x5f, 0x31, 
0x2f, 0x64, 0x65, 0x6e, 0x73, 0x65, 0x5f, 0x31, 0x2f, 0x52, 0x65, 0x6c, 
0x75, 0x3b, 0x73, 0x65, 0x71, 0x75, 0x65, 0x6e, 0x74, 0x69, 0x61, 0x6c, 
0x5f, 0x31, 0x2f, 0x64, 0x65, 0x6e, 0x73, 0x65, 0x5f, 0x31, 0x2f, 0x42, 
0x69, 0x61, 0x73, 0x41, 0x64, 0x64, 0x00, 0x00, 0x02, 0x00, 0x00, 0x00, 
0x01, 0x00, 0x00, 0x00, 0x20, 0x00, 0x00, 0x00, 0x7a, 0xf2, 0xff, 0xff, 
0x00, 0x00, 0x00, 0x01, 0x18, 0x00, 0x00, 0x00, 0x20, 0x00, 0x00, 0x00, 
0x40, 0x00, 0x00, 0x00, 0x0e, 0x00, 0x00, 0x00, 0x00, 0x00, 0x00, 0x09, 
0x68, 0x00, 0x00, 0x00, 0x02, 0x00, 0x00, 0x00, 0xff, 0xff, 0xff, 0xff, 
0x20, 0x00, 0x00, 0x00, 0x5c, 0xf2, 0xff, 0xff, 0x08, 0x00, 0x00, 0x00, 
0x14, 0x00, 0x00, 0x00, 0x01, 0x00, 0x00, 0x00, 0x80, 0xff, 0xff, 0xff, 
0xff, 0xff, 0xff, 0xff, 0x00, 0x00, 0x00, 0x00, 0x01, 0x00, 0x00, 0x00, 
0x27, 0xf4, 0x2e, 0x3b, 0x2c, 0x00, 0x00, 0x00, 0x73, 0x65, 0x71, 0x75, 
0x65, 0x6e, 0x74, 0x69, 0x61, 0x6c, 0x5f, 0x31, 0x2f, 0x67, 0x6c, 0x6f, 
0x62, 0x61, 0x6c, 0x5f, 0x61, 0x76, 0x65, 0x72, 0x61, 0x67, 0x65, 0x5f, 
0x70, 0x6f, 0x6f, 0x6c, 0x69, 0x6e, 0x67, 0x32, 0x64, 0x5f, 0x31, 0x2f, 
0x4d, 0x65, 0x61, 0x6e, 0x00, 0x00, 0x00, 0x00, 0x02, 0x00, 0x00, 0x00, 
0x01, 0x00, 0x00, 0x00, 0x20, 0x00, 0x00, 0x00, 0x0a, 0xf3, 0xff, 0xff, 
0x00, 0x00, 0x00, 0x01, 0x18, 0x00, 0x00, 0x00, 0x28, 0x00, 0x00, 0x00, 
0x44, 0x00, 0x00, 0x00, 0x0d, 0x00, 0x00, 0x00, 0x00, 0x00, 0x00, 0x09, 
0xc0, 0x00, 0x00, 0x00, 0x04, 0x00, 0x00, 0x00, 0xff, 0xff, 0xff, 0xff, 
0x30, 0x00, 0x00, 0x00, 0x30, 0x00, 0x00, 0x00, 0x20, 0x00, 0x00, 0x00, 
0xf4, 0xf2, 0xff, 0xff, 0x08, 0x00, 0x00, 0x00, 0x10, 0x00, 0x00, 0x00, 
0x01, 0x00, 0x00, 0x00, 0x80, 0xff, 0xff, 0xff, 0xff, 0xff, 0xff, 0xff, 
0x01, 0x00, 0x00, 0x00, 0x3c, 0x05, 0xe3, 0x3c, 0x80, 0x00, 0x00, 0x00, 
0x73, 0x65, 0x71, 0x75, 0x65, 0x6e, 0x74, 0x69, 0x61, 0x6c, 0x5f, 0x31, 
0x2f, 0x63, 0x6f, 0x6e, 0x76, 0x32, 0x64, 0x5f, 0x31, 0x5f, 0x32, 0x2f, 
0x52, 0x65, 0x6c, 0x75, 0x3b, 0x73, 0x65, 0x71, 0x75, 0x65, 0x6e, 0x74, 
0x69, 0x61, 0x6c, 0x5f, 0x31, 0x2f, 0x63, 0x6f, 0x6e, 0x76, 0x32, 0x64, 
0x5f, 0x31, 0x5f, 0x32, 0x2f, 0x42, 0x69, 0x61, 0x73, 0x41, 0x64, 0x64, 
0x3b, 0x73, 0x65, 0x71, 0x75, 0x65, 0x6e, 0x74, 0x69, 0x61, 0x6c, 0x5f, 
0x31, 0x2f, 0x63, 0x6f, 0x6e, 0x76, 0x32, 0x64, 0x5f, 0x31, 0x5f, 0x32, 
0x2f, 0x63, 0x6f, 0x6e, 0x76, 0x6f, 0x6c, 0x75, 0x74, 0x69, 0x6f, 0x6e, 
0x3b, 0x73, 0x65, 0x71, 0x75, 0x65, 0x6e, 0x74, 0x69, 0x61, 0x6c, 0x5f, 
0x31, 0x2f, 0x63, 0x6f, 0x6e, 0x76, 0x32, 0x64, 0x5f, 0x31, 0x5f, 0x32, 
0x2f, 0x53, 0x71, 0x75, 0x65, 0x65, 0x7a, 0x65, 0x00, 0x00, 0x00, 0x00, 
0x04, 0x00, 0x00, 0x00, 0x01, 0x00, 0x00, 0x00, 0x30, 0x00, 0x00, 0x00, 
0x30, 0x00, 0x00, 0x00, 0x20, 0x00, 0x00, 0x00, 0xfa, 0xf3, 0xff, 0xff, 
0x00, 0x00, 0x00, 0x01, 0x18, 0x00, 0x00, 0x00, 0x28, 0x00, 0x00, 0x00, 
0x48, 0x00, 0x00, 0x00, 0x0c, 0x00, 0x00, 0x00, 0x00, 0x00, 0x00, 0x09, 
0x68, 0x00, 0x00, 0x00, 0x04, 0x00, 0x00, 0x00, 0xff, 0xff, 0xff, 0xff, 
0x30, 0x00, 0x00, 0x00, 0x30, 0x00, 0x00, 0x00, 0x10, 0x00, 0x00, 0x00, 
0xe4, 0xf3, 0xff, 0xff, 0x08, 0x00, 0x00, 0x00, 0x14, 0x00, 0x00, 0x00, 
0x01, 0x00, 0x00, 0x00, 0x80, 0xff, 0xff, 0xff, 0xff, 0xff, 0xff, 0xff, 
0x00, 0x00, 0x00, 0x00, 0x01, 0x00, 0x00, 0x00, 0x07, 0x46, 0xb3, 0x3b, 
0x26, 0x00, 0x00, 0x00, 0x73, 0x65, 0x71, 0x75, 0x65, 0x6e, 0x74, 0x69, 
0x61, 0x6c, 0x5f, 0x31, 0x2f, 0x6d, 0x61, 0x78, 0x5f, 0x70, 0x6f, 0x6f, 
0x6c, 0x69, 0x6e, 0x67, 0x32, 0x64, 0x5f, 0x31, 0x2f, 0x4d, 0x61, 0x78, 
0x50, 0x6f, 0x6f, 0x6c, 0x32, 0x64, 0x00, 0x00, 0x04, 0x00, 0x00, 0x00, 
0x01, 0x00, 0x00, 0x00, 0x30, 0x00, 0x00, 0x00, 0x30, 0x00, 0x00, 0x00, 
0x10, 0x00, 0x00, 0x00, 0x92, 0xf4, 0xff, 0xff, 0x00, 0x00, 0x00, 0x01, 
0x18, 0x00, 0x00, 0x00, 0x28, 0x00, 0x00, 0x00, 0x48, 0x00, 0x00, 0x00, 
0x0b, 0x00, 0x00, 0x00, 0x00, 0x00, 0x00, 0x09, 0xa0, 0x00, 0x00, 0x00, 
0x04, 0x00, 0x00, 0x00, 0xff, 0xff, 0xff, 0xff, 0x60, 0x00, 0x00, 0x00, 
0x60, 0x00, 0x00, 0x00, 0x10, 0x00, 0x00, 0x00, 0x7c, 0xf4, 0xff, 0xff, 
0x08, 0x00, 0x00, 0x00, 0x14, 0x00, 0x00, 0x00, 0x01, 0x00, 0x00, 0x00, 
0x80, 0xff, 0xff, 0xff, 0xff, 0xff, 0xff, 0xff, 0x00, 0x00, 0x00, 0x00, 
0x01, 0x00, 0x00, 0x00, 0x07, 0x46, 0xb3, 0x3b, 0x5c, 0x00, 0x00, 0x00, 
0x73, 0x65, 0x71, 0x75, 0x65, 0x6e, 0x74, 0x69, 0x61, 0x6c, 0x5f, 0x31, 
0x2f, 0x63, 0x6f, 0x6e, 0x76, 0x32, 0x64, 0x5f, 0x31, 0x2f, 0x52, 0x65, 
0x6c, 0x75, 0x3b, 0x73, 0x65, 0x71, 0x75, 0x65, 0x6e, 0x74, 0x69, 0x61, 
0x6c, 0x5f, 0x31, 0x2f, 0x63, 0x6f, 0x6e, 0x76, 0x32, 0x64, 0x5f, 0x31, 
0x2f, 0x42, 0x69, 0x61, 0x73, 0x41, 0x64, 0x64, 0x3b, 0x73, 0x65, 0x71, 
0x75, 0x65, 0x6e, 0x74, 0x69, 0x61, 0x6c, 0x5f, 0x31, 0x2f, 0x63, 0x6f, 
0x6e, 0x76, 0x32, 0x64, 0x5f, 0x31, 0x2f, 0x63, 0x6f, 0x6e, 0x76, 0x6f, 
0x6c, 0x75, 0x74, 0x69, 0x6f, 0x6e, 0x3b, 0x31, 0x00, 0x00, 0x00, 0x00, 
0x04, 0x00, 0x00, 0x00, 0x01, 0x00, 0x00, 0x00, 0x60, 0x00, 0x00, 0x00, 
0x60, 0x00, 0x00, 0x00, 0x10, 0x00, 0x00, 0x00, 0xba, 0xf5, 0xff, 0xff, 
0x00, 0x00, 0x00, 0x01, 0x14, 0x00, 0x00, 0x00, 0xe8, 0x00, 0x00, 0x00, 
0x0a, 0x00, 0x00, 0x00, 0x00, 0x00, 0x00, 0x09, 0xf4, 0x00, 0x00, 0x00, 
0x34, 0xf5, 0xff, 0xff, 0x08, 0x00, 0x00, 0x00, 0x8c, 0x00, 0x00, 0x00, 
0x10, 0x00, 0x00, 0x00, 0x00, 0x00, 0x00, 0x00, 0x00, 0x00, 0x00, 0x00, 
0x00, 0x00, 0x00, 0x00, 0x00, 0x00, 0x00, 0x00, 0x00, 0x00, 0x00, 0x00, 
0x00, 0x00, 0x00, 0x00, 0x00, 0x00, 0x00, 0x00, 0x00, 0x00, 0x00, 0x00, 
0x00, 0x00, 0x00, 0x00, 0x00, 0x00, 0x00, 0x00, 0x00, 0x00, 0x00, 0x00, 
0x00, 0x00, 0x00, 0x00, 0x00, 0x00, 0x00, 0x00, 0x00, 0x00, 0x00, 0x00, 
0x00, 0x00, 0x00, 0x00, 0x00, 0x00, 0x00, 0x00, 0x00, 0x00, 0x00, 0x00, 
0x00, 0x00, 0x00, 0x00, 0x00, 0x00, 0x00, 0x00, 0x00, 0x00, 0x00, 0x00, 
0x00, 0x00, 0x00, 0x00, 0x00, 0x00, 0x00, 0x00, 0x00, 0x00, 0x00, 0x00, 
0x00, 0x00, 0x00, 0x00, 0x00, 0x00, 0x00, 0x00, 0x00, 0x00, 0x00, 0x00, 
0x00, 0x00, 0x00, 0x00, 0x00, 0x00, 0x00, 0x00, 0x00, 0x00, 0x00, 0x00, 
0x00, 0x00, 0x00, 0x00, 0x00, 0x00, 0x00, 0x00, 0x00, 0x00, 0x00, 0x00, 
0x00, 0x00, 0x00, 0x00, 0x10, 0x00, 0x00, 0x00, 0x50, 0xb4, 0x48, 0x3b, 
0x8a, 0x45, 0x2c, 0x3c, 0xee, 0xda, 0x85, 0x3b, 0xd6, 0x05, 0x82, 0x3b, 
0x74, 0x7a, 0x78, 0x3b, 0xd2, 0xd5, 0x84, 0x3b, 0x86, 0x7e, 0x78, 0x3b, 
0xbb, 0xf4, 0x4c, 0x3b, 0x22, 0xe4, 0x9f, 0x3b, 0x13, 0xd9, 0x51, 0x3b, 
0x1f, 0xe8, 0x73, 0x3b, 0x14, 0xbc, 0x3b, 0x3b, 0x36, 0x72, 0x8b, 0x3b, 
0xd5, 0x33, 0xbd, 0x3a, 0x0b, 0xa4, 0x75, 0x3b, 0x8d, 0x04, 0xc5, 0x3b, 
0x12, 0x00, 0x00, 0x00, 0x74, 0x66, 0x6c, 0x2e, 0x70, 0x73, 0x65, 0x75, 
0x64, 0x6f, 0x5f, 0x71, 0x63, 0x6f, 0x6e, 0x73, 0x74, 0x37, 0x00, 0x00, 
0x04, 0x00, 0x00, 0x00, 0x10, 0x00, 0x00, 0x00, 0x03, 0x00, 0x00, 0x00, 
0x03, 0x00, 0x00, 0x00, 0x01, 0x00, 0x00, 0x00, 0xda, 0xf6, 0xff, 0xff, 
0x00, 0x00, 0x00, 0x01, 0x14, 0x00, 0x00, 0x00, 0xe4, 0x00, 0x00, 0x00, 
0x09, 0x00, 0x00, 0x00, 0x00, 0x00, 0x00, 0x02, 0xf0, 0x00, 0x00, 0x00, 
0x54, 0xf6, 0xff, 0xff, 0x08, 0x00, 0x00, 0x00, 0x88, 0x00, 0x00, 0x00, 
0x10, 0x00, 0x00, 0x00, 0x00, 0x00, 0x00, 0x00, 0x00, 0x00, 0x00, 0x00, 
0x00, 0x00, 0x00, 0x00, 0x00, 0x00, 0x00, 0x00, 0x00, 0x00, 0x00, 0x00, 
0x00, 0x00, 0x00, 0x00, 0x00, 0x00, 0x00, 0x00, 0x00, 0x00, 0x00, 0x00, 
0x00, 0x00, 0x00, 0x00, 0x00, 0x00, 0x00, 0x00, 0x00, 0x00, 0x00, 0x00, 
0x00, 0x00, 0x00, 0x00, 0x00, 0x00, 0x00, 0x00, 0x00, 0x00, 0x00, 0x00, 
0x00, 0x00, 0x00, 0x00, 0x00, 0x00, 0x00, 0x00, 0x00, 0x00, 0x00, 0x00, 
0x00, 0x00, 0x00, 0x00, 0x00, 0x00, 0x00, 0x00, 0x00, 0x00, 0x00, 0x00, 
0x00, 0x00, 0x00, 0x00, 0x00, 0x00, 0x00, 0x00, 0x00, 0x00, 0x00, 0x00, 
0x00, 0x00, 0x00, 0x00, 0x00, 0x00, 0x00, 0x00, 0x00, 0x00, 0x00, 0x00, 
0x00, 0x00, 0x00, 0x00, 0x00, 0x00, 0x00, 0x00, 0x00, 0x00, 0x00, 0x00, 
0x00, 0x00, 0x00, 0x00, 0x00, 0x00, 0x00, 0x00, 0x00, 0x00, 0x00, 0x00, 
0x10, 0x00, 0x00, 0x00, 0xcf, 0x7d, 0x49, 0x37, 0x7d, 0xf2, 0x2c, 0x38, 
0x50, 0x61, 0x86, 0x37, 0x5f, 0x88, 0x82, 0x37, 0xe9, 0x73, 0x79, 0x37, 
0x2e, 0x5b, 0x85, 0x37, 0xff, 0x77, 0x79, 0x37, 0x7e, 0xc2, 0x4d, 0x37, 
0xa7, 0x84, 0xa0, 0x37, 0xc0, 0xab, 0x52, 0x37, 0xfd, 0xdc, 0x74, 0x37, 
0x8d, 0x78, 0x3c, 0x37, 0x35, 0xfe, 0x8b, 0x37, 0xc8, 0xf1, 0xbd, 0x36, 
0xa7, 0x9a, 0x76, 0x37, 0x58, 0xca, 0xc5, 0x37, 0x12, 0x00, 0x00, 0x00, 
0x74, 0x66, 0x6c, 0x2e, 0x70, 0x73, 0x65, 0x75, 0x64, 0x6f, 0x5f, 0x71, 
0x63, 0x6f, 0x6e, 0x73, 0x74, 0x36, 0x00, 0x00, 0x01, 0x00, 0x00, 0x00, 
0x10, 0x00, 0x00, 0x00, 0xea, 0xf7, 0xff, 0xff, 0x00, 0x00, 0x00, 0x01, 
0x14, 0x00, 0x00, 0x00, 0xa8, 0x01, 0x00, 0x00, 0x08, 0x00, 0x00, 0x00, 
0x00, 0x00, 0x00, 0x09, 0xb4, 0x01, 0x00, 0x00, 0x64, 0xf7, 0xff, 0xff, 
0x08, 0x00, 0x00, 0x00, 0x0c, 0x01, 0x00, 0x00, 0x20, 0x00, 0x00, 0x00, 
0x00, 0x00, 0x00, 0x00, 0x00, 0x00, 0x00, 0x00, 0x00, 0x00, 0x00, 0x00, 
0x00, 0x00, 0x00, 0x00, 0x00, 0x00, 0x00, 0x00, 0x00, 0x00, 0x00, 0x00, 
0x00, 0x00, 0x00, 0x00, 0x00, 0x00, 0x00, 0x00, 0x00, 0x00, 0x00, 0x00, 
0x00, 0x00, 0x00, 0x00, 0x00, 0x00, 0x00, 0x00, 0x00, 0x00, 0x00, 0x00, 
0x00, 0x00, 0x00, 0x00, 0x00, 0x00, 0x00, 0x00, 0x00, 0x00, 0x00, 0x00, 
0x00, 0x00, 0x00, 0x00, 0x00, 0x00, 0x00, 0x00, 0x00, 0x00, 0x00, 0x00, 
0x00, 0x00, 0x00, 0x00, 0x00, 0x00, 0x00, 0x00, 0x00, 0x00, 0x00, 0x00, 
0x00, 0x00, 0x00, 0x00, 0x00, 0x00, 0x00, 0x00, 0x00, 0x00, 0x00, 0x00, 
0x00, 0x00, 0x00, 0x00, 0x00, 0x00, 0x00, 0x00, 0x00, 0x00, 0x00, 0x00, 
0x00, 0x00, 0x00, 0x00, 0x00, 0x00, 0x00, 0x00, 0x00, 0x00, 0x00, 0x00, 
0x00, 0x00, 0x00, 0x00, 0x00, 0x00, 0x00, 0x00, 0x00, 0x00, 0x00, 0x00, 
0x00, 0x00, 0x00, 0x00, 0x00, 0x00, 0x00, 0x00, 0x00, 0x00, 0x00, 0x00, 
0x00, 0x00, 0x00, 0x00, 0x00, 0x00, 0x00, 0x00, 0x00, 0x00, 0x00, 0x00, 
0x00, 0x00, 0x00, 0x00, 0x00, 0x00, 0x00, 0x00, 0x00, 0x00, 0x00, 0x00, 
0x00, 0x00, 0x00, 0x00, 0x00, 0x00, 0x00, 0x00, 0x00, 0x00, 0x00, 0x00, 
0x00, 0x00, 0x00, 0x00, 0x00, 0x00, 0x00, 0x00, 0x00, 0x00, 0x00, 0x00, 
0x00, 0x00, 0x00, 0x00, 0x00, 0x00, 0x00, 0x00, 0x00, 0x00, 0x00, 0x00, 
0x00, 0x00, 0x00, 0x00, 0x00, 0x00, 0x00, 0x00, 0x00, 0x00, 0x00, 0x00, 
0x00, 0x00, 0x00, 0x00, 0x00, 0x00, 0x00, 0x00, 0x00, 0x00, 0x00, 0x00, 
0x00, 0x00, 0x00, 0x00, 0x00, 0x00, 0x00, 0x00, 0x00, 0x00, 0x00, 0x00, 
0x00, 0x00, 0x00, 0x00, 0x00, 0x00, 0x00, 0x00, 0x00, 0x00, 0x00, 0x00, 
0x00, 0x00, 0x00, 0x00, 0x00, 0x00, 0x00, 0x00, 0x20, 0x00, 0x00, 0x00, 
0x42, 0x8e, 0xa6, 0x3c, 0x6c, 0xf9, 0x8b, 0x3c, 0x6f, 0x78, 0x8b, 0x3c, 
0xcb, 0xf7, 0x97, 0x3c, 0xae, 0x41, 0xa8, 0x3c, 0xae, 0x7a, 0x92, 0x3c, 
0xf1, 0x2a, 0x8f, 0x3c, 0x06, 0x8d, 0x95, 0x3c, 0x05, 0x35, 0x9c, 0x3c, 
0xe1, 0xb5, 0x39, 0x3c, 0x44, 0x9a, 0x09, 0x3d, 0x6b, 0xcd, 0xa2, 0x3c, 
0x2c, 0xae, 0xda, 0x3c, 0xd7, 0xc2, 0x90, 0x3c, 0x45, 0x69, 0x8b, 0x3c, 
0xf6, 0xba, 0x8b, 0x3c, 0xb8, 0x7e, 0x59, 0x3c, 0x4b, 0x49, 0x9a, 0x3c, 
0x1b, 0xbf, 0xaf, 0x3c, 0x9e, 0xe0, 0x8f, 0x3c, 0x98, 0xfd, 0x3d, 0x3c, 
0x64, 0x00, 0x83, 0x3c, 0x8e, 0xee, 0xa5, 0x3c, 0xe9, 0x6e, 0xa5, 0x3c, 
0xa9, 0xec, 0xe0, 0x3c, 0xa6, 0xb4, 0x73, 0x3c, 0xd6, 0x72, 0x89, 0x3c, 
0x5d, 0x31, 0x8e, 0x3c, 0xb4, 0x83, 0x9d, 0x3c, 0x23, 0xc3, 0x8f, 0x3c, 
0xd6, 0x71, 0x92, 0x3c, 0x84, 0x5d, 0xaa, 0x3c, 0x12, 0x00, 0x00, 0x00, 
0x74, 0x66, 0x6c, 0x2e, 0x70, 0x73, 0x65, 0x75, 0x64, 0x6f, 0x5f, 0x71, 
0x63, 0x6f, 0x6e, 0x73, 0x74, 0x35, 0x00, 0x00, 0x04, 0x00, 0x00, 0x00, 
0x20, 0x00, 0x00, 0x00, 0x02, 0x00, 0x00, 0x00, 0x02, 0x00, 0x00, 0x00, 
0x10, 0x00, 0x00, 0x00, 0xca, 0xf9, 0xff, 0xff, 0x00, 0x00, 0x00, 0x01, 
0x14, 0x00, 0x00, 0x00, 0xa4, 0x01, 0x00, 0x00, 0x07, 0x00, 0x00, 0x00, 
0x00, 0x00, 0x00, 0x02, 0xb0, 0x01, 0x00, 0x00, 0x44, 0xf9, 0xff, 0xff, 
0x08, 0x00, 0x00, 0x00, 0x08, 0x01, 0x00, 0x00, 0x20, 0x00, 0x00, 0x00, 
0x00, 0x00, 0x00, 0x00, 0x00, 0x00, 0x00, 0x00, 0x00, 0x00, 0x00, 0x00, 
0x00, 0x00, 0x00, 0x00, 0x00, 0x00, 0x00, 0x00, 0x00, 0x00, 0x00, 0x00, 
0x00, 0x00, 0x00, 0x00, 0x00, 0x00, 0x00, 0x00, 0x00, 0x00, 0x00, 0x00, 
0x00, 0x00, 0x00, 0x00, 0x00, 0x00, 0x00, 0x00, 0x00, 0x00, 0x00, 0x00, 
0x00, 0x00, 0x00, 0x00, 0x00, 0x00, 0x00, 0x00, 0x00, 0x00, 0x00, 0x00, 
0x00, 0x00, 0x00, 0x00, 0x00, 0x00, 0x00, 0x00, 0x00, 0x00, 0x00, 0x00, 
0x00, 0x00, 0x00, 0x00, 0x00, 0x00, 0x00, 0x00, 0x00, 0x00, 0x00, 0x00, 
0x00, 0x00, 0x00, 0x00, 0x00, 0x00, 0x00, 0x00, 0x00, 0x00, 0x00, 0x00, 
0x00, 0x00, 0x00, 0x00, 0x00, 0x00, 0x00, 0x00, 0x00, 0x00, 0x00, 0x00, 
0x00, 0x00, 0x00, 0x00, 0x00, 0x00, 0x00, 0x00, 0x00, 0x00, 0x00, 0x00, 
0x00, 0x00, 0x00, 0x00, 0x00, 0x00, 0x00, 0x00, 0x00, 0x00, 0x00, 0x00, 
0x00, 0x00, 0x00, 0x00, 0x00, 0x00, 0x00, 0x00, 0x00, 0x00, 0x00, 0x00, 
0x00, 0x00, 0x00, 0x00, 0x00, 0x00, 0x00, 0x00, 0x00, 0x00, 0x00, 0x00, 
0x00, 0x00, 0x00, 0x00, 0x00, 0x00, 0x00, 0x00, 0x00, 0x00, 0x00, 0x00, 
0x00, 0x00, 0x00, 0x00, 0x00, 0x00, 0x00, 0x00, 0x00, 0x00, 0x00, 0x00, 
0x00, 0x00, 0x00, 0x00, 0x00, 0x00, 0x00, 0x00, 0x00, 0x00, 0x00, 0x00, 
0x00, 0x00, 0x00, 0x00, 0x00, 0x00, 0x00, 0x00, 0x00, 0x00, 0x00, 0x00, 
0x00, 0x00, 0x00, 0x00, 0x00, 0x00, 0x00, 0x00, 0x00, 0x00, 0x00, 0x00, 
0x00, 0x00, 0x00, 0x00, 0x00, 0x00, 0x00, 0x00, 0x00, 0x00, 0x00, 0x00, 
0x00, 0x00, 0x00, 0x00, 0x00, 0x00, 0x00, 0x00, 0x00, 0x00, 0x00, 0x00, 
0x00, 0x00, 0x00, 0x00, 0x00, 0x00, 0x00, 0x00, 0x00, 0x00, 0x00, 0x00, 
0x00, 0x00, 0x00, 0x00, 0x20, 0x00, 0x00, 0x00, 0x0f, 0x46, 0xe9, 0x38, 
0x61, 0x0b, 0xc4, 0x38, 0xb9, 0x56, 0xc3, 0x38, 0xaa, 0xd7, 0xd4, 0x38, 
0xe6, 0xa7, 0xeb, 0x38, 0xb2, 0x27, 0xcd, 0x38, 0x60, 0x84, 0xc8, 0x38, 
0x08, 0x75, 0xd1, 0x38, 0x9b, 0xc7, 0xda, 0x38, 0xf9, 0x0c, 0x82, 0x38, 
0x03, 0xb9, 0x40, 0x39, 0x55, 0x04, 0xe4, 0x38, 0x9a, 0x23, 0x19, 0x39, 
0xab, 0xbf, 0xca, 0x38, 0x7c, 0x41, 0xc3, 0x38, 0xe6, 0xb3, 0xc3, 0x38, 
0x19, 0x4f, 0x98, 0x38, 0xe7, 0x16, 0xd8, 0x38, 0x66, 0x25, 0xf6, 0x38, 
0xd4, 0x82, 0xc9, 0x38, 0x4a, 0x0c, 0x85, 0x38, 0x37, 0x7a, 0xb7, 0x38, 
0x62, 0x66, 0xe8, 0x38, 0x9c, 0xb3, 0xe7, 0x38, 0x01, 0x83, 0x1d, 0x39, 
0xfa, 0xa9, 0xaa, 0x38, 0xca, 0x81, 0xc0, 0x38, 0xd3, 0x26, 0xc7, 0x38, 
0x5a, 0x9c, 0xdc, 0x38, 0x8a, 0x59, 0xc9, 0x38, 0x50, 0x1b, 0xcd, 0x38, 
0xfb, 0x9b, 0xee, 0x38, 0x12, 0x00, 0x00, 0x00, 0x74, 0x66, 0x6c, 0x2e, 
0x70, 0x73, 0x65, 0x75, 0x64, 0x6f, 0x5f, 0x71, 0x63, 0x6f, 0x6e, 0x73, 
0x74, 0x34, 0x00, 0x00, 0x01, 0x00, 0x00, 0x00, 0x20, 0x00, 0x00, 0x00, 
0x9a, 0xfb, 0xff, 0xff, 0x00, 0x00, 0x00, 0x01, 0x14, 0x00, 0x00, 0x00, 
0xa8, 0x01, 0x00, 0x00, 0x06, 0x00, 0x00, 0x00, 0x00, 0x00, 0x00, 0x09, 
0xb4, 0x01, 0x00, 0x00, 0x14, 0xfb, 0xff, 0xff, 0x08, 0x00, 0x00, 0x00, 
0x0c, 0x01, 0x00, 0x00, 0x20, 0x00, 0x00, 0x00, 0x00, 0x00, 0x00, 0x00, 
0x00, 0x00, 0x00, 0x00, 0x00, 0x00, 0x00, 0x00, 0x00, 0x00, 0x00, 0x00, 
0x00, 0x00, 0x00, 0x00, 0x00, 0x00, 0x00, 0x00, 0x00, 0x00, 0x00, 0x00, 
0x00, 0x00, 0x00, 0x00, 0x00, 0x00, 0x00, 0x00, 0x00, 0x00, 0x00, 0x00, 
0x00, 0x00, 0x00, 0x00, 0x00, 0x00, 0x00, 0x00, 0x00, 0x00, 0x00, 0x00, 
0x00, 0x00, 0x00, 0x00, 0x00, 0x00, 0x00, 0x00, 0x00, 0x00, 0x00, 0x00, 
0x00, 0x00, 0x00, 0x00, 0x00, 0x00, 0x00, 0x00, 0x00, 0x00, 0x00, 0x00, 
0x00, 0x00, 0x00, 0x00, 0x00, 0x00, 0x00, 0x00, 0x00, 0x00, 0x00, 0x00, 
0x00, 0x00, 0x00, 0x00, 0x00, 0x00, 0x00, 0x00, 0x00, 0x00, 0x00, 0x00, 
0x00, 0x00, 0x00, 0x00, 0x00, 0x00, 0x00, 0x00, 0x00, 0x00, 0x00, 0x00, 
0x00, 0x00, 0x00, 0x00, 0x00, 0x00, 0x00, 0x00, 0x00, 0x00, 0x00, 0x00, 
0x00, 0x00, 0x00, 0x00, 0x00, 0x00, 0x00, 0x00, 0x00, 0x00, 0x00, 0x00, 
0x00, 0x00, 0x00, 0x00, 0x00, 0x00, 0x00, 0x00, 0x00, 0x00, 0x00, 0x00, 
0x00, 0x00, 0x00, 0x00, 0x00, 0x00, 0x00, 0x00, 0x00, 0x00, 0x00, 0x00, 
0x00, 0x00, 0x00, 0x00, 0x00, 0x00, 0x00, 0x00, 0x00, 0x00, 0x00, 0x00, 
0x00, 0x00, 0x00, 0x00, 0x00, 0x00, 0x00, 0x00, 0x00, 0x00, 0x00, 0x00, 
0x00, 0x00, 0x00, 0x00, 0x00, 0x00, 0x00, 0x00, 0x00, 0x00, 0x00, 0x00, 
0x00, 0x00, 0x00, 0x00, 0x00, 0x00, 0x00, 0x00, 0x00, 0x00, 0x00, 0x00, 
0x00, 0x00, 0x00, 0x00, 0x00, 0x00, 0x00, 0x00, 0x00, 0x00, 0x00, 0x00, 
0x00, 0x00, 0x00, 0x00, 0x00, 0x00, 0x00, 0x00, 0x00, 0x00, 0x00, 0x00, 
0x00, 0x00, 0x00, 0x00, 0x00, 0x00, 0x00, 0x00, 0x00, 0x00, 0x00, 0x00, 
0x00, 0x00, 0x00, 0x00, 0x00, 0x00, 0x00, 0x00, 0x00, 0x00, 0x00, 0x00, 
0x00, 0x00, 0x00, 0x00, 0x20, 0x00, 0x00, 0x00, 0x28, 0xe5, 0x38, 0x3b, 
0xe6, 0x2f, 0x1f, 0x3b, 0xf8, 0x7e, 0x81, 0x3c, 0x4d, 0x22, 0x8e, 0x3c, 
0x85, 0xea, 0x5d, 0x3c, 0x51, 0x63, 0x54, 0x3c, 0x3e, 0x9f, 0xab, 0x3c, 
0xac, 0x26, 0x26, 0x3b, 0x95, 0xe5, 0x1a, 0x3b, 0x5b, 0x41, 0x87, 0x3c, 
0xd8, 0xbe, 0x1a, 0x3b, 0x25, 0xec, 0x58, 0x3c, 0x25, 0xe3, 0x79, 0x3c, 
0x21, 0x3c, 0x25, 0x3b, 0x4f, 0x7d, 0x99, 0x3c, 0xe3, 0x72, 0x90, 0x3c, 
0x4d, 0xb7, 0x2c, 0x3c, 0x81, 0x16, 0x14, 0x3b, 0xea, 0x90, 0x19, 0x3b, 
0x88, 0x6a, 0x1c, 0x3b, 0xf5, 0x14, 0x30, 0x3c, 0xf1, 0x62, 0x25, 0x3c, 
0x98, 0x08, 0x2a, 0x3b, 0x53, 0x3e, 0x2d, 0x3b, 0x7c, 0x4f, 0x47, 0x3c, 
0x0f, 0x78, 0x4c, 0x3b, 0xbd, 0x6d, 0x1c, 0x3b, 0xd0, 0x98, 0x3c, 0x3c, 
0x7c, 0xb2, 0x71, 0x3c, 0xda, 0x82, 0x2d, 0x3b, 0xfc, 0x8d, 0x40, 0x3b, 
0x6c, 0x19, 0x23, 0x3b, 0x12, 0x00, 0x00, 0x00, 0x74, 0x66, 0x6c, 0x2e, 
0x70, 0x73, 0x65, 0x75, 0x64, 0x6f, 0x5f, 0x71, 0x63, 0x6f, 0x6e, 0x73, 
0x74, 0x33, 0x00, 0x00, 0x02, 0x00, 0x00, 0x00, 0x20, 0x00, 0x00, 0x00, 
0x20, 0x00, 0x00, 0x00, 0x72, 0xfd, 0xff, 0xff, 0x00, 0x00, 0x00, 0x01, 
0x14, 0x00, 0x00, 0x00, 0xa4, 0x01, 0x00, 0x00, 0x05, 0x00, 0x00, 0x00, 
0x00, 0x00, 0x00, 0x02, 0xb0, 0x01, 0x00, 0x00, 0xec, 0xfc, 0xff, 0xff, 
0x08, 0x00, 0x00, 0x00, 0x08, 0x01, 0x00, 0x00, 0x20, 0x00, 0x00, 0x00, 
0x00, 0x00, 0x00, 0x00, 0x00, 0x00, 0x00, 0x00, 0x00, 0x00, 0x00, 0x00, 
0x00, 0x00, 0x00, 0x00, 0x00, 0x00, 0x00, 0x00, 0x00, 0x00, 0x00, 0x00, 
0x00, 0x00, 0x00, 0x00, 0x00, 0x00, 0x00, 0x00, 0x00, 0x00, 0x00, 0x00, 
0x00, 0x00, 0x00, 0x00, 0x00, 0x00, 0x00, 0x00, 0x00, 0x00, 0x00, 0x00, 
0x00, 0x00, 0x00, 0x00, 0x00, 0x00, 0x00, 0x00, 0x00, 0x00, 0x00, 0x00, 
0x00, 0x00, 0x00, 0x00, 0x00, 0x00, 0x00, 0x00, 0x00, 0x00, 0x00, 0x00, 
0x00, 0x00, 0x00, 0x00, 0x00, 0x00, 0x00, 0x00, 0x00, 0x00, 0x00, 0x00, 
0x00, 0x00, 0x00, 0x00, 0x00, 0x00, 0x00, 0x00, 0x00, 0x00, 0x00, 0x00, 
0x00, 0x00, 0x00, 0x00, 0x00, 0x00, 0x00, 0x00, 0x00, 0x00, 0x00, 0x00, 
0x00, 0x00, 0x00, 0x00, 0x00, 0x00, 0x00, 0x00, 0x00, 0x00, 0x00, 0x00, 
0x00, 0x00, 0x00, 0x00, 0x00, 0x00, 0x00, 0x00, 0x00, 0x00, 0x00, 0x00, 
0x00, 0x00, 0x00, 0x00, 0x00, 0x00, 0x00, 0x00, 0x00, 0x00, 0x00, 0x00, 
0x00, 0x00, 0x00, 0x00, 0x00, 0x00, 0x00, 0x00, 0x00, 0x00, 0x00, 0x00, 
0x00, 0x00, 0x00, 0x00, 0x00, 0x00, 0x00, 0x00, 0x00, 0x00, 0x00, 0x00, 
0x00, 0x00, 0x00, 0x00, 0x00, 0x00, 0x00, 0x00, 0x00, 0x00, 0x00, 0x00, 
0x00, 0x00, 0x00, 0x00, 0x00, 0x00, 0x00, 0x00, 0x00, 0x00, 0x00, 0x00, 
0x00, 0x00, 0x00, 0x00, 0x00, 0x00, 0x00, 0x00, 0x00, 0x00, 0x00, 0x00, 
0x00, 0x00, 0x00, 0x00, 0x00, 0x00, 0x00, 0x00, 0x00, 0x00, 0x00, 0x00, 
0x00, 0x00, 0x00, 0x00, 0x00, 0x00, 0x00, 0x00, 0x00, 0x00, 0x00, 0x00, 
0x00, 0x00, 0x00, 0x00, 0x00, 0x00, 0x00, 0x00, 0x00, 0x00, 0x00, 0x00, 
0x00, 0x00, 0x00, 0x00, 0x00, 0x00, 0x00, 0x00, 0x00, 0x00, 0x00, 0x00, 
0x00, 0x00, 0x00, 0x00, 0x20, 0x00, 0x00, 0x00, 0x30, 0xb8, 0xfc, 0x36, 
0xc0, 0x94, 0xd9, 0x36, 0x9b, 0xff, 0x30, 0x38, 0xbd, 0x45, 0x42, 0x38, 
0x0c, 0xa9, 0x17, 0x38, 0x10, 0x26, 0x11, 0x38, 0xd4, 0x93, 0x6a, 0x38, 
0x7e, 0x19, 0xe3, 0x36, 0x8b, 0xb7, 0xd3, 0x36, 0xd5, 0xde, 0x38, 0x38, 
0x99, 0x82, 0xd3, 0x36, 0x63, 0x3f, 0x14, 0x38, 0xb6, 0xc6, 0x2a, 0x38, 
0xea, 0xd8, 0xe1, 0x36, 0x1d, 0xcb, 0x51, 0x38, 0xb4, 0x6f, 0x45, 0x38, 
0x9f, 0x12, 0xec, 0x37, 0x0f, 0x69, 0xca, 0x36, 0xe9, 0xe5, 0xd1, 0x36, 
0x2c, 0xcb, 0xd5, 0x36, 0x5b, 0xac, 0xf0, 0x37, 0xf7, 0x0d, 0xe2, 0x37, 
0x03, 0x68, 0xe8, 0x36, 0x2c, 0xcb, 0xec, 0x36, 0x1c, 0x36, 0x08, 0x38, 
0x9c, 0xbc, 0x0b, 0x37, 0x8e, 0xcf, 0xd5, 0x36, 0xbc, 0xe3, 0x00, 0x38, 
0xd3, 0x2d, 0x25, 0x38, 0xd7, 0x28, 0xed, 0x36, 0x26, 0x98, 0x03, 0x37, 
0xa9, 0xed, 0xde, 0x36, 0x12, 0x00, 0x00, 0x00, 0x74, 0x66, 0x6c, 0x2e, 
0x70, 0x73, 0x65, 0x75, 0x64, 0x6f, 0x5f, 0x71, 0x63, 0x6f, 0x6e, 0x73, 
0x74, 0x32, 0x00, 0x00, 0x01, 0x00, 0x00, 0x00, 0x20, 0x00, 0x00, 0x00, 
0x42, 0xff, 0xff, 0xff, 0x00, 0x00, 0x00, 0x01, 0x14, 0x00, 0x00, 0x00, 
0x30, 0x00, 0x00, 0x00, 0x04, 0x00, 0x00, 0x00, 0x00, 0x00, 0x00, 0x09, 
0x3c, 0x00, 0x00, 0x00, 0xbc, 0xfe, 0xff, 0xff, 0x08, 0x00, 0x00, 0x00, 
0x10, 0x00, 0x00, 0x00, 0x01, 0x00, 0x00, 0x00, 0x00, 0x00, 0x00, 0x00, 
0x00, 0x00, 0x00, 0x00, 0x01, 0x00, 0x00, 0x00, 0x0b, 0x16, 0x37, 0x3d, 
0x12, 0x00, 0x00, 0x00, 0x74, 0x66, 0x6c, 0x2e, 0x70, 0x73, 0x65, 0x75, 
0x64, 0x6f, 0x5f, 0x71, 0x63, 0x6f, 0x6e, 0x73, 0x74, 0x31, 0x00, 0x00, 
0x02, 0x00, 0x00, 0x00, 0x01, 0x00, 0x00, 0x00, 0x20, 0x00, 0x00, 0x00, 
0xa2, 0xff, 0xff, 0xff, 0x00, 0x00, 0x00, 0x01, 0x14, 0x00, 0x00, 0x00, 
0x30, 0x00, 0x00, 0x00, 0x03, 0x00, 0x00, 0x00, 0x00, 0x00, 0x00, 0x02, 
0x3c, 0x00, 0x00, 0x00, 0x1c, 0xff, 0xff, 0xff, 0x08, 0x00, 0x00, 0x00, 
0x10, 0x00, 0x00, 0x00, 0x01, 0x00, 0x00, 0x00, 0x00, 0x00, 0x00, 0x00, 
0x00, 0x00, 0x00, 0x00, 0x01, 0x00, 0x00, 0x00, 0x8f, 0x88, 0x3c, 0x39, 
0x11, 0x00, 0x00, 0x00, 0x74, 0x66, 0x6c, 0x2e, 0x70, 0x73, 0x65, 0x75, 
0x64, 0x6f, 0x5f, 0x71, 0x63, 0x6f, 0x6e, 0x73, 0x74, 0x00, 0x00, 0x00, 
0x01, 0x00, 0x00, 0x00, 0x01, 0x00, 0x00, 0x00, 0x00, 0x00, 0x16, 0x00, 
0x1c, 0x00, 0x18, 0x00, 0x17, 0x00, 0x10, 0x00, 0x0c, 0x00, 0x08, 0x00, 
0x00, 0x00, 0x00, 0x00, 0x00, 0x00, 0x07, 0x00, 0x16, 0x00, 0x00, 0x00, 
0x00, 0x00, 0x00, 0x01, 0x18, 0x00, 0x00, 0x00, 0x18, 0x00, 0x00, 0x00, 
0x02, 0x00, 0x00, 0x00, 0x00, 0x00, 0x00, 0x02, 0x20, 0x00, 0x00, 0x00, 
0x04, 0x00, 0x04, 0x00, 0x04, 0x00, 0x00, 0x00, 0x0e, 0x00, 0x00, 0x00, 
0x61, 0x72, 0x69, 0x74, 0x68, 0x2e, 0x63, 0x6f, 0x6e, 0x73, 0x74, 0x61, 
0x6e, 0x74, 0x00, 0x00, 0x01, 0x00, 0x00, 0x00, 0x02, 0x00, 0x00, 0x00, 
0x00, 0x00, 0x16, 0x00, 0x20, 0x00, 0x1c, 0x00, 0x1b, 0x00, 0x14, 0x00, 
0x10, 0x00, 0x0c, 0x00, 0x00, 0x00, 0x00, 0x00, 0x08, 0x00, 0x07, 0x00, 
0x16, 0x00, 0x00, 0x00, 0x00, 0x00, 0x00, 0x01, 0x18, 0x00, 0x00, 0x00, 
0x34, 0x00, 0x00, 0x00, 0x54, 0x00, 0x00, 0x00, 0x01, 0x00, 0x00, 0x00, 
0x00, 0x00, 0x00, 0x09, 0x6c, 0x00, 0x00, 0x00, 0x04, 0x00, 0x00, 0x00, 
0xff, 0xff, 0xff, 0xff, 0x60, 0x00, 0x00, 0x00, 0x60, 0x00, 0x00, 0x00, 
0x01, 0x00, 0x00, 0x00, 0x0c, 0x00, 0x0c, 0x00, 0x00, 0x00, 0x00, 0x00, 
0x08, 0x00, 0x04, 0x00, 0x0c, 0x00, 0x00, 0x00, 0x08, 0x00, 0x00, 0x00, 
0x14, 0x00, 0x00, 0x00, 0x01, 0x00, 0x00, 0x00, 0x80, 0xff, 0xff, 0xff, 
0xff, 0xff, 0xff, 0xff, 0x00, 0x00, 0x00, 0x00, 0x01, 0x00, 0x00, 0x00, 
0x81, 0x80, 0x80, 0x3b, 0x1e, 0x00, 0x00, 0x00, 0x73, 0x65, 0x72, 0x76, 
0x69, 0x6e, 0x67, 0x5f, 0x64, 0x65, 0x66, 0x61, 0x75, 0x6c, 0x74, 0x5f, 
0x6b, 0x65, 0x72, 0x61, 0x73, 0x5f, 0x74, 0x65, 0x6e, 0x73, 0x6f, 0x72, 
0x3a, 0x30, 0x00, 0x00, 0x04, 0x00, 0x00, 0x00, 0x01, 0x00, 0x00, 0x00, 
0x60, 0x00, 0x00, 0x00, 0x60, 0x00, 0x00, 0x00, 0x01, 0x00, 0x00, 0x00, 
0x05, 0x00, 0x00, 0x00, 0x60, 0x00, 0x00, 0x00, 0x40, 0x00, 0x00, 0x00, 
0x2c, 0x00, 0x00, 0x00, 0x18, 0x00, 0x00, 0x00, 0x04, 0x00, 0x00, 0x00, 
0xc0, 0xff, 0xff, 0xff, 0x0e, 0x00, 0x00, 0x00, 0x02, 0x00, 0x00, 0x00, 
0x00, 0x00, 0x00, 0x0e, 0xd0, 0xff, 0xff, 0xff, 0x09, 0x00, 0x00, 0x00, 
0x04, 0x00, 0x00, 0x00, 0x00, 0x00, 0x00, 0x09, 0xe0, 0xff, 0xff, 0xff, 
0x28, 0x00, 0x00, 0x00, 0x02, 0x00, 0x00, 0x00, 0x00, 0x00, 0x00, 0x28, 
0xf0, 0xff, 0xff, 0xff, 0x11, 0x00, 0x00, 0x00, 0x02, 0x00, 0x00, 0x00, 
0x00, 0x00, 0x00, 0x11, 0x0c, 0x00, 0x10, 0x00, 0x0f, 0x00, 0x00, 0x00, 
0x08, 0x00, 0x04, 0x00, 0x0c, 0x00, 0x00, 0x00, 0x03, 0x00, 0x00, 0x00, 
0x03, 0x00, 0x00, 0x00, 0x00, 0x00, 0x00, 0x03, 
};
extern "C" const unsigned int modelLen = 9152;
