extern "C" const unsigned int8_t modelWeights[] = {
0x1c, 0x00, 0x00, 0x00, 0x54, 0x46, 0x4c, 0x33, 0x14, 0x00, 0x20, 0x00, 
0x1c, 0x00, 0x18, 0x00, 0x14, 0x00, 0x10, 0x00, 0x0c, 0x00, 0x00, 0x00, 
0x08, 0x00, 0x04, 0x00, 0x14, 0x00, 0x00, 0x00, 0x1c, 0x00, 0x00, 0x00, 
0x8c, 0x00, 0x00, 0x00, 0x0c, 0x01, 0x00, 0x00, 0xa8, 0x10, 0x00, 0x00, 
0xb8, 0x10, 0x00, 0x00, 0x6c, 0x24, 0x00, 0x00, 0x03, 0x00, 0x00, 0x00, 
0x01, 0x00, 0x00, 0x00, 0x04, 0x00, 0x00, 0x00, 0xda, 0xee, 0xff, 0xff, 
0x0c, 0x00, 0x00, 0x00, 0x1c, 0x00, 0x00, 0x00, 0x3c, 0x00, 0x00, 0x00, 
0x0f, 0x00, 0x00, 0x00, 0x73, 0x65, 0x72, 0x76, 0x69, 0x6e, 0x67, 0x5f, 
0x64, 0x65, 0x66, 0x61, 0x75, 0x6c, 0x74, 0x00, 0x01, 0x00, 0x00, 0x00, 
0x04, 0x00, 0x00, 0x00, 0x68, 0xff, 0xff, 0xff, 0x12, 0x00, 0x00, 0x00, 
0x04, 0x00, 0x00, 0x00, 0x08, 0x00, 0x00, 0x00, 0x6f, 0x75, 0x74, 0x70, 
0x75, 0x74, 0x5f, 0x30, 0x00, 0x00, 0x00, 0x00, 0x01, 0x00, 0x00, 0x00, 
0x04, 0x00, 0x00, 0x00, 0xe2, 0xef, 0xff, 0xff, 0x04, 0x00, 0x00, 0x00, 
0x0c, 0x00, 0x00, 0x00, 0x6b, 0x65, 0x72, 0x61, 0x73, 0x5f, 0x74, 0x65, 
0x6e, 0x73, 0x6f, 0x72, 0x00, 0x00, 0x00, 0x00, 0x03, 0x00, 0x00, 0x00, 
0x5c, 0x00, 0x00, 0x00, 0x2c, 0x00, 0x00, 0x00, 0x04, 0x00, 0x00, 0x00, 
0xb8, 0xff, 0xff, 0xff, 0x16, 0x00, 0x00, 0x00, 0x04, 0x00, 0x00, 0x00, 
0x13, 0x00, 0x00, 0x00, 0x43, 0x4f, 0x4e, 0x56, 0x45, 0x52, 0x53, 0x49, 
0x4f, 0x4e, 0x5f, 0x4d, 0x45, 0x54, 0x41, 0x44, 0x41, 0x54, 0x41, 0x00, 
0xdc, 0xff, 0xff, 0xff, 0x15, 0x00, 0x00, 0x00, 0x04, 0x00, 0x00, 0x00, 
0x13, 0x00, 0x00, 0x00, 0x6d, 0x69, 0x6e, 0x5f, 0x72, 0x75, 0x6e, 0x74, 
0x69, 0x6d, 0x65, 0x5f, 0x76, 0x65, 0x72, 0x73, 0x69, 0x6f, 0x6e, 0x00, 
0x08, 0x00, 0x0c, 0x00, 0x08, 0x00, 0x04, 0x00, 0x08, 0x00, 0x00, 0x00, 
0x14, 0x00, 0x00, 0x00, 0x04, 0x00, 0x00, 0x00, 0x13, 0x00, 0x00, 0x00, 
0x6d, 0x69, 0x6e, 0x5f, 0x72, 0x75, 0x6e, 0x74, 0x69, 0x6d, 0x65, 0x5f, 
0x76, 0x65, 0x72, 0x73, 0x69, 0x6f, 0x6e, 0x00, 0x17, 0x00, 0x00, 0x00, 
0x98, 0x0f, 0x00, 0x00, 0x90, 0x0f, 0x00, 0x00, 0x78, 0x0f, 0x00, 0x00, 
0x5c, 0x0f, 0x00, 0x00, 0x2c, 0x0f, 0x00, 0x00, 0x9c, 0x0e, 0x00, 0x00, 
0x8c, 0x0a, 0x00, 0x00, 0xfc, 0x09, 0x00, 0x00, 0xec, 0x01, 0x00, 0x00, 
0x9c, 0x01, 0x00, 0x00, 0xfc, 0x00, 0x00, 0x00, 0xf4, 0x00, 0x00, 0x00, 
0xec, 0x00, 0x00, 0x00, 0xe4, 0x00, 0x00, 0x00, 0xdc, 0x00, 0x00, 0x00, 
0xd4, 0x00, 0x00, 0x00, 0xcc, 0x00, 0x00, 0x00, 0xc4, 0x00, 0x00, 0x00, 
0xbc, 0x00, 0x00, 0x00, 0xb4, 0x00, 0x00, 0x00, 0x94, 0x00, 0x00, 0x00, 
0x74, 0x00, 0x00, 0x00, 0x04, 0x00, 0x00, 0x00, 0xe2, 0xf0, 0xff, 0xff, 
0x04, 0x00, 0x00, 0x00, 0x60, 0x00, 0x00, 0x00, 0x0c, 0x00, 0x00, 0x00, 
0x08, 0x00, 0x0e, 0x00, 0x08, 0x00, 0x04, 0x00, 0x08, 0x00, 0x00, 0x00, 
0x10, 0x00, 0x00, 0x00, 0x28, 0x00, 0x00, 0x00, 0x00, 0x00, 0x06, 0x00, 
0x08, 0x00, 0x04, 0x00, 0x06, 0x00, 0x00, 0x00, 0x04, 0x00, 0x00, 0x00, 
0x01, 0x00, 0x00, 0x00, 0xeb, 0x03, 0x00, 0x00, 0x0c, 0x00, 0x18, 0x00, 
0x14, 0x00, 0x10, 0x00, 0x0c, 0x00, 0x04, 0x00, 0x0c, 0x00, 0x00, 0x00, 
0xd7, 0x52, 0xad, 0x96, 0x57, 0xe1, 0x22, 0x00, 0x02, 0x00, 0x00, 0x00, 
0x02, 0x00, 0x00, 0x00, 0x04, 0x00, 0x00, 0x00, 0x06, 0x00, 0x00, 0x00, 
0x32, 0x2e, 0x31, 0x39, 0x2e, 0x30, 0x00, 0x00, 0x4e, 0xf1, 0xff, 0xff, 
0x04, 0x00, 0x00, 0x00, 0x10, 0x00, 0x00, 0x00, 0x00, 0x00, 0x00, 0x00, 
0x00, 0x00, 0x00, 0x00, 0x00, 0x00, 0x00, 0x00, 0x00, 0x00, 0x00, 0x00, 
0x6a, 0xf1, 0xff, 0xff, 0x04, 0x00, 0x00, 0x00, 0x10, 0x00, 0x00, 0x00, 
0x31, 0x2e, 0x31, 0x34, 0x2e, 0x30, 0x00, 0x00, 0x00, 0x00, 0x00, 0x00, 
0x00, 0x00, 0x00, 0x00, 0x6c, 0xde, 0xff, 0xff, 0x70, 0xde, 0xff, 0xff, 
0x74, 0xde, 0xff, 0xff, 0x78, 0xde, 0xff, 0xff, 0x7c, 0xde, 0xff, 0xff, 
0x80, 0xde, 0xff, 0xff, 0x84, 0xde, 0xff, 0xff, 0x88, 0xde, 0xff, 0xff, 
0x8c, 0xde, 0xff, 0xff, 0xaa, 0xf1, 0xff, 0xff, 0x04, 0x00, 0x00, 0x00, 
0x90, 0x00, 0x00, 0x00, 0x1f, 0x01, 0xc3, 0x1c, 0xce, 0x81, 0x2e, 0x27, 
0x04, 0x6b, 0x6b, 0x7f, 0xc5, 0x92, 0xb3, 0xad, 0x0f, 0xc9, 0x57, 0x48, 
0x41, 0xcf, 0x1c, 0x32, 0xe1, 0x82, 0x81, 0xa5, 0x0b, 0x26, 0x81, 0x15, 
0x21, 0xa1, 0x0b, 0x24, 0x2c, 0x31, 0xe4, 0x75, 0x23, 0x81, 0x4c, 0xe2, 
0xe4, 0xba, 0x81, 0x2a, 0xdc, 0xa0, 0xf9, 0x2a, 0xbc, 0x03, 0x4c, 0x34, 
0x01, 0x39, 0x1f, 0x03, 0x7f, 0x67, 0xe9, 0x29, 0x30, 0x51, 0x22, 0x9b, 
0x81, 0xfb, 0x32, 0xc6, 0x83, 0x81, 0x9a, 0xb3, 0x98, 0xa2, 0xff, 0xa5, 
0xb4, 0xea, 0x8c, 0x1c, 0xda, 0xe2, 0x23, 0x2f, 0xa0, 0x81, 0x3b, 0xcd, 
0x58, 0x1a, 0x81, 0xa7, 0x46, 0xa2, 0xb9, 0x95, 0xa8, 0x81, 0xba, 0xd4, 
0xad, 0x2e, 0xf1, 0xc9, 0x81, 0xd8, 0x0b, 0x08, 0xe6, 0x33, 0x26, 0x2f, 
0x13, 0x81, 0x1d, 0xea, 0x43, 0xcb, 0x92, 0x8b, 0xfd, 0x0f, 0xfe, 0xb4, 
0x81, 0xf3, 0x17, 0x55, 0x4d, 0x5a, 0xf7, 0x23, 0xfe, 0xce, 0xd4, 0x89, 
0xbf, 0x26, 0x7f, 0x63, 0x46, 0xf2, 0xff, 0xff, 0x04, 0x00, 0x00, 0x00, 
0x40, 0x00, 0x00, 0x00, 0x9f, 0x06, 0x00, 0x00, 0x79, 0x08, 0x00, 0x00, 
0x9d, 0x05, 0x00, 0x00, 0xd3, 0xfa, 0xff, 0xff, 0x6a, 0xb9, 0xff, 0xff, 
0x2d, 0x4b, 0x00, 0x00, 0xac, 0x75, 0xff, 0xff, 0xce, 0xfd, 0xff, 0xff, 
0x1f, 0x16, 0x00, 0x00, 0xe1, 0xe5, 0xff, 0xff, 0x3f, 0x25, 0x00, 0x00, 
0x79, 0x68, 0x00, 0x00, 0x28, 0xf9, 0xff, 0xff, 0x6f, 0xe7, 0xff, 0xff, 
0xd9, 0xd8, 0xff, 0xff, 0x49, 0xf4, 0xff, 0xff, 0x92, 0xf2, 0xff, 0xff, 
0x04, 0x00, 0x00, 0x00, 0x00, 0x08, 0x00, 0x00, 0xd8, 0x07, 0xd8, 0xe5, 
0x0e, 0x28, 0x11, 0xf7, 0xd3, 0x04, 0x18, 0x03, 0xba, 0x07, 0xf2, 0x1e, 
0xb8, 0xf7, 0xcf, 0xeb, 0x00, 0x29, 0x10, 0xca, 0xb0, 0x08, 0x0e, 0x0c, 
0xf1, 0xfb, 0xbc, 0xf5, 0xe5, 0xef, 0x92, 0xf0, 0x03, 0x1c, 0x0e, 0xfa, 
0xdc, 0x07, 0x17, 0x10, 0xcf, 0x02, 0x15, 0x05, 0xb4, 0xd8, 0x81, 0xea, 
0xf2, 0x19, 0x06, 0xc1, 0xc5, 0x07, 0x0d, 0x14, 0xfc, 0x04, 0xe0, 0xe6, 
0xc3, 0xbe, 0xc1, 0xc6, 0xc3, 0xb7, 0x8c, 0x08, 0x56, 0x2b, 0x30, 0x22, 
0xa1, 0xb1, 0xe2, 0xef, 0x05, 0xee, 0xc3, 0x2e, 0xdd, 0x45, 0xc0, 0x3d, 
0xea, 0x7a, 0x57, 0x82, 0x91, 0x1c, 0xd7, 0xf4, 0xf9, 0x81, 0xb3, 0xf3, 
0x9a, 0xec, 0x25, 0x0d, 0x96, 0x41, 0x87, 0x41, 0xfc, 0x9a, 0xba, 0x3b, 
0x96, 0x06, 0x28, 0xae, 0x18, 0x90, 0x84, 0x95, 0x3a, 0x65, 0xe5, 0x24, 
0x1c, 0xbb, 0xcc, 0xc0, 0xca, 0x42, 0x15, 0xee, 0xcd, 0x55, 0xff, 0x2f, 
0xde, 0xfe, 0xf0, 0x24, 0xf5, 0x0f, 0x04, 0x0a, 0xef, 0x50, 0x32, 0xa2, 
0xbf, 0x5e, 0xf9, 0x41, 0xb7, 0xf2, 0x17, 0x20, 0xf7, 0x01, 0x09, 0x0c, 
0x94, 0x0c, 0xc3, 0x00, 0x81, 0x27, 0xec, 0xd9, 0xce, 0xfe, 0x13, 0xfb, 
0xd4, 0xf3, 0xfb, 0xd1, 0xea, 0x0d, 0xf0, 0x9f, 0xbf, 0x25, 0xf5, 0xdf, 
0x86, 0xfb, 0x32, 0xe4, 0xc6, 0x11, 0xca, 0xc9, 0xbc, 0xc0, 0xb4, 0x77, 
0x9d, 0x1a, 0xb1, 0xef, 0x22, 0x43, 0xae, 0xc1, 0x88, 0xb1, 0x58, 0xf5, 
0x22, 0x39, 0x13, 0xde, 0xe4, 0x0d, 0xe1, 0x01, 0x99, 0x45, 0xfa, 0x68, 
0xb1, 0xbc, 0xd5, 0xc3, 0x09, 0xd9, 0x4f, 0xae, 0xe8, 0x91, 0x06, 0x9a, 
0x15, 0xb9, 0x36, 0x15, 0x96, 0xcf, 0xdc, 0xc6, 0xcc, 0x81, 0x92, 0xab, 
0x37, 0xe8, 0x33, 0x38, 0x9e, 0x3c, 0xed, 0x2f, 0xf1, 0x06, 0x03, 0xb8, 
0x09, 0x08, 0x05, 0x10, 0xf4, 0xc5, 0x05, 0xfb, 0x29, 0x00, 0x13, 0xee, 
0x1a, 0x04, 0x12, 0x11, 0x0b, 0x0f, 0x10, 0x87, 0xfd, 0xbf, 0x00, 0x03, 
0x25, 0x05, 0x11, 0xe9, 0x1b, 0xf8, 0x14, 0x0b, 0x01, 0x08, 0x14, 0x09, 
0xf3, 0x81, 0xfe, 0x02, 0xba, 0xfb, 0x0a, 0xf4, 0x0e, 0xfd, 0x08, 0x05, 
0x10, 0x0a, 0x12, 0x9d, 0xfe, 0xea, 0xfe, 0x09, 0x11, 0xff, 0x08, 0x0a, 
0x0e, 0x02, 0x0f, 0x0d, 0xf8, 0x27, 0x21, 0x04, 0xf5, 0x32, 0xe4, 0x18, 
0xcc, 0xf9, 0x04, 0x1b, 0x1c, 0x01, 0x12, 0x25, 0x06, 0x2c, 0x1a, 0x23, 
0x11, 0x28, 0xf9, 0x28, 0xa2, 0xfc, 0x08, 0x16, 0x05, 0x06, 0x13, 0x2a, 
0x00, 0x24, 0x1b, 0xfc, 0xf0, 0x1e, 0xd4, 0x0c, 0xaa, 0x00, 0x01, 0x0c, 
0x08, 0xf7, 0xe4, 0xef, 0x0b, 0x28, 0x2b, 0xf4, 0xf9, 0x1b, 0xe5, 0x13, 
0x81, 0x00, 0x11, 0x0a, 0xe0, 0x07, 0xf5, 0xec, 0x12, 0x01, 0x07, 0x14, 
0xf8, 0xd8, 0x0b, 0xfd, 0xd2, 0x02, 0x24, 0xfd, 0x1e, 0xfb, 0x11, 0xfe, 
0x0a, 0x04, 0x07, 0x82, 0xf4, 0xc2, 0x07, 0xfa, 0x7f, 0x05, 0x1e, 0xc2, 
0x18, 0xfa, 0x0d, 0xfe, 0x13, 0x04, 0x0d, 0x0e, 0xf1, 0xa9, 0x06, 0x00, 
0xc2, 0xfd, 0x1f, 0x0d, 0xf9, 0x02, 0xf2, 0xe5, 0x13, 0xf8, 0x12, 0xc6, 
0xf7, 0xe3, 0x04, 0x01, 0x56, 0xfe, 0x18, 0xb4, 0xdb, 0x05, 0xfd, 0xf2, 
0xd7, 0x08, 0xca, 0xd3, 0x06, 0x38, 0x0b, 0xe8, 0xbc, 0xff, 0x21, 0x05, 
0xbd, 0x04, 0xec, 0x15, 0xad, 0xf2, 0xcd, 0x15, 0xf3, 0x33, 0x04, 0xce, 
0x91, 0x07, 0x1a, 0x18, 0xf2, 0xf6, 0xba, 0xef, 0xe6, 0xf2, 0x85, 0xf9, 
0x15, 0x1d, 0x10, 0xf9, 0xc1, 0x02, 0x2f, 0x06, 0xc8, 0x05, 0x21, 0x09, 
0xba, 0xe1, 0x81, 0xe7, 0xe8, 0x28, 0x15, 0xc3, 0xa2, 0x03, 0x1a, 0x10, 
0xeb, 0x04, 0xef, 0xe2, 0x03, 0x02, 0x0a, 0x06, 0xfc, 0xcd, 0x04, 0xff, 
0xf5, 0x04, 0x0b, 0x03, 0xe2, 0x03, 0xeb, 0xf6, 0x01, 0x08, 0x0d, 0xa0, 
0xfd, 0xe7, 0xff, 0x03, 0x1a, 0x00, 0x0b, 0xd1, 0xd6, 0xfd, 0xec, 0x04, 
0x09, 0x04, 0x08, 0x08, 0xfe, 0xc3, 0xff, 0x01, 0xd0, 0xfc, 0xfb, 0xfa, 
0xfe, 0xfd, 0x01, 0x0f, 0x08, 0x0e, 0x11, 0x81, 0x03, 0xf1, 0xff, 0x0c, 
0xee, 0x04, 0x03, 0xc5, 0x0a, 0xfe, 0x08, 0x10, 0xff, 0x13, 0x00, 0x02, 
0xf0, 0x44, 0xe5, 0x13, 0xaf, 0x01, 0x16, 0x23, 0x13, 0xfc, 0x10, 0x20, 
0x20, 0x13, 0x00, 0x17, 0x19, 0x37, 0xff, 0x23, 0x8a, 0xfb, 0x1c, 0x1a, 
0x0a, 0x00, 0x20, 0x29, 0xf8, 0x1e, 0x24, 0x08, 0x02, 0x37, 0xd8, 0x0b, 
0xa0, 0x08, 0x0e, 0x0c, 0x06, 0xfb, 0xfc, 0xf2, 0x19, 0x23, 0x2d, 0xf8, 
0x11, 0x2f, 0xec, 0x2c, 0x81, 0xfb, 0x22, 0x0a, 0xef, 0x05, 0x01, 0xf6, 
0xfa, 0xc7, 0xfc, 0xd6, 0x28, 0x00, 0xff, 0xc0, 0xd6, 0xfe, 0xc3, 0x35, 
0x0f, 0x07, 0x15, 0x2c, 0x0d, 0xc9, 0xf2, 0xd0, 0x1d, 0xf9, 0x05, 0xfe, 
0xaa, 0x0a, 0xb4, 0x15, 0xf4, 0x09, 0x12, 0x18, 0xea, 0x2e, 0x2a, 0xab, 
0x40, 0x26, 0xfe, 0x21, 0xf3, 0x0a, 0x9d, 0x3d, 0x0f, 0xfc, 0x21, 0x24, 
0x0a, 0x2a, 0x28, 0x81, 0x20, 0x04, 0x13, 0x29, 0xc0, 0xff, 0xaa, 0x22, 
0x04, 0xf9, 0x2e, 0x35, 0xd9, 0x00, 0xc5, 0xe0, 0x06, 0x23, 0x10, 0xe8, 
0xb6, 0xfd, 0x1e, 0x01, 0xc1, 0x04, 0xec, 0x1a, 0xc2, 0xf7, 0xc8, 0xf0, 
0xe6, 0x2d, 0x01, 0xcd, 0x89, 0x02, 0x1a, 0x18, 0xeb, 0x07, 0xbe, 0xf5, 
0xed, 0xf4, 0x8b, 0xf6, 0x01, 0x14, 0x11, 0x00, 0xd1, 0xfa, 0x21, 0x07, 
0xd6, 0x06, 0x22, 0x02, 0xd1, 0xe8, 0x81, 0xd1, 0xe4, 0x27, 0x12, 0xc1, 
0xad, 0x04, 0x0f, 0x14, 0xf6, 0x03, 0xe8, 0xf0, 0xf1, 0x17, 0x13, 0xfc, 
0xf2, 0x41, 0xe5, 0x0c, 0xb7, 0xfb, 0x09, 0x1c, 0x0d, 0x02, 0x04, 0x1d, 
0x13, 0x1f, 0x19, 0x07, 0x1b, 0x34, 0xf7, 0x21, 0x91, 0xfd, 0x19, 0x1e, 
0x07, 0xfb, 0x18, 0x1f, 0xef, 0x19, 0x20, 0x06, 0xeb, 0x2b, 0xe0, 0x05, 
0xb3, 0x02, 0x0c, 0x11, 0x0b, 0xfd, 0xee, 0xe5, 0x12, 0x22, 0x1d, 0xf9, 
0x0f, 0x28, 0xeb, 0x16, 0x81, 0x02, 0x1e, 0x10, 0xe8, 0xfe, 0x00, 0xf4, 
0xc3, 0x10, 0xf5, 0xf0, 0xf5, 0x3e, 0x02, 0xef, 0xb0, 0x06, 0x0e, 0x13, 
0xda, 0x09, 0xf6, 0x02, 0xca, 0x0e, 0xfc, 0xf1, 0xfb, 0x43, 0xfa, 0xd6, 
0x8a, 0xf5, 0x16, 0x1b, 0xf8, 0x08, 0xe1, 0xf3, 0xdc, 0xf0, 0x92, 0x08, 
0x02, 0x22, 0x13, 0xd0, 0xa9, 0xf6, 0x0a, 0x10, 0xd4, 0xfa, 0x2f, 0xff, 
0xe1, 0xe5, 0xbc, 0xb6, 0xf0, 0x33, 0x0c, 0xcc, 0x81, 0x04, 0x22, 0x10, 
0xeb, 0xfe, 0xf2, 0xe4, 0x07, 0x01, 0xfe, 0xf3, 0x01, 0xe4, 0x05, 0x09, 
0xe9, 0xfc, 0x19, 0x04, 0xc7, 0x02, 0xef, 0xee, 0x04, 0x03, 0x0c, 0x99, 
0xff, 0xfa, 0x01, 0x0a, 0x1e, 0xfc, 0x15, 0xd5, 0xdf, 0xff, 0xf3, 0x01, 
0x11, 0x0a, 0x06, 0xf6, 0x03, 0xc7, 0xff, 0x0a, 0xf7, 0xfd, 0x0f, 0xfb, 
0xe4, 0xff, 0xff, 0x08, 0x13, 0x14, 0x16, 0x81, 0x09, 0xf9, 0xfb, 0x0f, 
0x2f, 0x04, 0x19, 0xd6, 0x0a, 0xfd, 0x13, 0x1a, 0xdb, 0x0d, 0xe8, 0xd9, 
0x0c, 0x36, 0x0e, 0x06, 0xad, 0x08, 0x10, 0x1c, 0xbe, 0xf9, 0xf8, 0x20, 
0xb5, 0x07, 0xdf, 0xf1, 0xf7, 0x37, 0x11, 0xc9, 0x81, 0x0c, 0x14, 0x14, 
0xf1, 0xfd, 0xc1, 0xfa, 0xdc, 0xf4, 0x92, 0xf0, 0xf7, 0x28, 0x11, 0xee, 
0xaa, 0x06, 0x13, 0x0a, 0xd1, 0xff, 0x1f, 0x14, 0xb2, 0xea, 0x9c, 0xbf, 
0xdf, 0x40, 0x05, 0xa8, 0x82, 0x09, 0x28, 0x2c, 0xcf, 0xfa, 0xd8, 0xd5, 
0x11, 0x07, 0x14, 0x13, 0xf8, 0xd8, 0x07, 0xff, 0xe7, 0xff, 0x15, 0xe4, 
0x17, 0x04, 0x1d, 0x08, 0x0a, 0x02, 0x12, 0xbe, 0xec, 0xc0, 0x05, 0x07, 
0x7f, 0x03, 0x18, 0xcf, 0x18, 0xf8, 0x1c, 0xff, 0x0c, 0x0b, 0x0a, 0x15, 
0xf3, 0xa7, 0x0c, 0x00, 0x96, 0x02, 0x0b, 0xf9, 0x15, 0x08, 0x10, 0x08, 
0x05, 0x09, 0x12, 0x82, 0xf6, 0xcd, 0x04, 0xf8, 0x1a, 0x08, 0x19, 0xc8, 
0x10, 0xf8, 0x1c, 0x06, 0x06, 0x02, 0x06, 0x0f, 0xfe, 0xd6, 0x07, 0x06, 
0xec, 0x00, 0x18, 0x0a, 0xe2, 0x02, 0xe5, 0xed, 0x03, 0x04, 0x0b, 0x85, 
0xfc, 0xd6, 0xfe, 0x02, 0x3c, 0x00, 0x18, 0xc4, 0xdc, 0xfe, 0xed, 0x05, 
0x13, 0x0a, 0x0f, 0x0f, 0x00, 0xc3, 0x00, 0x05, 0xc9, 0xfd, 0x17, 0xff, 
0xee, 0x01, 0x01, 0x08, 0x0d, 0x13, 0x15, 0x81, 0x0b, 0xec, 0xfb, 0x15, 
0x39, 0xff, 0x0c, 0xbe, 0x02, 0x01, 0x11, 0x1b, 0x0f, 0x03, 0x0b, 0x0c, 
0x00, 0xe1, 0x04, 0x02, 0x1c, 0x04, 0x11, 0x01, 0x08, 0x02, 0x13, 0x08, 
0x00, 0x01, 0x11, 0x81, 0xf8, 0xdf, 0xff, 0xfd, 0x4b, 0xfe, 0x0e, 0xe0, 
0x13, 0xff, 0x08, 0x03, 0x0e, 0x00, 0x02, 0x06, 0xfe, 0xbc, 0xfd, 0x06, 
0xe1, 0x03, 0x0e, 0x09, 0xf1, 0x01, 0x00, 0xf9, 0xff, 0x07, 0x03, 0xa1, 
0xf2, 0xeb, 0xf7, 0x02, 0x17, 0xfc, 0x0f, 0xc9, 0x03, 0x02, 0x0b, 0x06, 
0x01, 0xfc, 0xcc, 0x0a, 0xf0, 0x19, 0xc0, 0x10, 0x5b, 0x05, 0xe7, 0x2a, 
0xdc, 0xfa, 0xb6, 0xdf, 0x08, 0xf2, 0xa9, 0x27, 0xcc, 0x29, 0xe7, 0x07, 
0x71, 0xfc, 0xf4, 0x30, 0x0f, 0xfb, 0x9e, 0x2f, 0x02, 0x15, 0xfe, 0xfa, 
0xe8, 0x34, 0xaf, 0x19, 0x6e, 0x02, 0xf7, 0x37, 0xff, 0xf8, 0xc5, 0x2f, 
0x1c, 0x1c, 0xd1, 0x3b, 0xe1, 0x2f, 0x05, 0x16, 0x7f, 0xf9, 0xf1, 0x2c, 
0x3c, 0x02, 0xe6, 0x3e, 0x10, 0x0a, 0x07, 0x0e, 0xf2, 0xdf, 0x08, 0x06, 
0xcb, 0x03, 0x1f, 0xe8, 0x1d, 0x01, 0x1d, 0x0d, 0x14, 0x07, 0x0f, 0xbf, 
0xfa, 0xcc, 0x06, 0xfe, 0x7f, 0x04, 0x1a, 0xbb, 0x18, 0x01, 0x14, 0x08, 
0x15, 0x08, 0x06, 0x0f, 0xf5, 0xa6, 0x03, 0xfe, 0xac, 0xf9, 0x16, 0xfc, 
0x17, 0x07, 0x17, 0x0f, 0x0e, 0x05, 0x15, 0x86, 0xfc, 0xd7, 0xfb, 0x00, 
0x2f, 0xff, 0x14, 0xa4, 0x11, 0xfb, 0x0e, 0x0b, 0xfe, 0xfd, 0xcf, 0xfb, 
0xef, 0x1a, 0xb5, 0x13, 0x4e, 0xfb, 0xf2, 0x2f, 0xd9, 0xfb, 0xc6, 0xdc, 
0x0a, 0xfd, 0xae, 0x24, 0xd0, 0x2a, 0xdd, 0xfa, 0x68, 0x08, 0xf8, 0x35, 
0x03, 0x07, 0xac, 0x2a, 0xf9, 0x0f, 0x1c, 0x09, 0xec, 0x31, 0xc0, 0x14, 
0x63, 0x05, 0xf9, 0x2f, 0x0b, 0x05, 0xec, 0x2a, 0x17, 0x0b, 0xf8, 0x3a, 
0xe9, 0x36, 0x0a, 0x0f, 0x7f, 0xfa, 0xfc, 0x2e, 0x33, 0x05, 0x00, 0x45, 
0xff, 0xea, 0x11, 0xdb, 0x22, 0x32, 0xf6, 0xf0, 0x21, 0x02, 0x9d, 0x4b, 
0x10, 0xf6, 0x17, 0x23, 0x11, 0xe3, 0x03, 0xc1, 0x1b, 0x19, 0xfb, 0xfb, 
0xd1, 0xfb, 0xb7, 0x35, 0x0b, 0x06, 0x0d, 0x30, 0xf5, 0x3b, 0x32, 0xd2, 
0x2d, 0xde, 0xee, 0x1b, 0x0c, 0xfd, 0x81, 0x0b, 0x0e, 0xf8, 0x13, 0x26, 
0x14, 0x3f, 0x33, 0x99, 0x21, 0x91, 0x08, 0x2f, 0xd8, 0xfc, 0xa6, 0xb3, 
0xf5, 0x0a, 0x2d, 0x33, 0xef, 0x03, 0x08, 0x81, 0xf3, 0xf3, 0x06, 0x03, 
0x01, 0x00, 0x1d, 0x97, 0xcb, 0xfd, 0xe2, 0xf5, 0xe8, 0x07, 0x08, 0xd7, 
0xee, 0xea, 0x08, 0xfc, 0x03, 0xfd, 0x0f, 0xee, 0xda, 0xfe, 0xdc, 0xf9, 
0x0e, 0x11, 0x0d, 0x9f, 0x05, 0xd1, 0xff, 0x11, 0xf8, 0xff, 0x16, 0x86, 
0xfa, 0x02, 0x03, 0x1a, 0x0e, 0x15, 0x14, 0xf6, 0x08, 0xff, 0xf6, 0x26, 
0xae, 0xfd, 0x12, 0xf5, 0x10, 0x03, 0x13, 0x1d, 0x0c, 0x1e, 0x20, 0x02, 
0xf9, 0x2e, 0xe1, 0x1e, 0xb8, 0x06, 0x13, 0x30, 0x0d, 0x09, 0x11, 0x24, 
0x04, 0x2d, 0x1f, 0x26, 0x0d, 0x2a, 0xf0, 0x24, 0x8f, 0x01, 0x0f, 0x10, 
0x08, 0xf7, 0x14, 0x29, 0xf7, 0x1e, 0x1f, 0x00, 0xf4, 0x21, 0xcd, 0x12, 
0xa2, 0x00, 0x0a, 0x21, 0x0d, 0x01, 0xe6, 0xec, 0x0b, 0x23, 0x2a, 0x03, 
0x05, 0x19, 0xea, 0x17, 0x81, 0x03, 0x14, 0x07, 0xd7, 0x06, 0xef, 0xf1, 
0x0a, 0x04, 0xfd, 0xf2, 0x05, 0xd5, 0x03, 0x08, 0xe3, 0x05, 0x1e, 0xfb, 
0xf9, 0x03, 0x06, 0xfd, 0x0d, 0x03, 0x0c, 0x88, 0x01, 0xe2, 0xff, 0x08, 
0x24, 0x02, 0x1d, 0xda, 0x12, 0xfd, 0x0e, 0xfc, 0x11, 0xfe, 0xfd, 0xe3, 
0x06, 0xcd, 0x04, 0x04, 0xf5, 0x00, 0x1c, 0x09, 0xcb, 0x04, 0xfc, 0xfc, 
0x0d, 0x04, 0x07, 0x81, 0x05, 0xee, 0xf8, 0x06, 0x1b, 0x04, 0x1d, 0xd5, 
0xfc, 0x03, 0x17, 0x15, 0x05, 0x05, 0x12, 0x0d, 0xf5, 0xd2, 0x00, 0x02, 
0xee, 0xfe, 0x0d, 0xe3, 0x1a, 0xf9, 0x0f, 0x0c, 0x11, 0x01, 0x08, 0xd7, 
0xf4, 0xbf, 0x06, 0x09, 0x60, 0xfc, 0x18, 0xe3, 0x1a, 0xfe, 0x1a, 0xfb, 
0x07, 0xfb, 0x0f, 0x12, 0xed, 0xb2, 0xfb, 0x02, 0x81, 0x05, 0x04, 0xf2, 
0x12, 0xfc, 0x0d, 0x09, 0x0d, 0x03, 0x0d, 0xbd, 0xf2, 0xd2, 0x04, 0xfe, 
0x14, 0x02, 0x08, 0xf9, 0x18, 0x06, 0x0b, 0x06, 0x08, 0x00, 0x05, 0x0f, 
0xfd, 0xcd, 0x07, 0x06, 0x25, 0xfb, 0x18, 0xf0, 0x17, 0x03, 0x14, 0x0b, 
0x14, 0x0b, 0x15, 0x81, 0xfd, 0xc7, 0xfb, 0x09, 0x1d, 0x01, 0x16, 0xf3, 
0x11, 0x00, 0x11, 0x00, 0x08, 0x08, 0x05, 0x07, 0xfe, 0x8d, 0xfd, 0x01, 
0xb6, 0x03, 0x0f, 0xff, 0xfa, 0xfc, 0x08, 0x02, 0x13, 0x0b, 0x09, 0x94, 
0x08, 0xd6, 0xf7, 0x09, 0x16, 0x04, 0x0a, 0xfc, 0x04, 0x05, 0x11, 0x0e, 
0x08, 0x00, 0x03, 0xeb, 0xfc, 0xf5, 0x02, 0x03, 0xf9, 0xfe, 0x20, 0xad, 
0xcb, 0xfe, 0xe7, 0xf1, 0x0b, 0x06, 0x0e, 0x81, 0x06, 0xf5, 0xff, 0x05, 
0x22, 0x04, 0x24, 0xcf, 0xd9, 0x00, 0xf2, 0x0b, 0x12, 0x0b, 0x0b, 0xe5, 
0x06, 0xbc, 0x03, 0x10, 0xf3, 0x02, 0x1f, 0x96, 0xdb, 0x04, 0x01, 0x0a, 
0x0f, 0x16, 0x16, 0x9f, 0x0a, 0xfb, 0xfc, 0x18, 0x2e, 0xfc, 0x1a, 0xd5, 
0x0c, 0xfe, 0x18, 0x1c, 0x0b, 0x04, 0x11, 0x0e, 0x04, 0xe3, 0x06, 0x08, 
0x1c, 0x00, 0x0e, 0x0a, 0xe6, 0x01, 0xed, 0xf2, 0xde, 0xfb, 0x0a, 0x81, 
0xc4, 0x00, 0x02, 0xe7, 0x45, 0xfd, 0x0b, 0x11, 0xf6, 0x01, 0xda, 0xf9, 
0x12, 0x14, 0x16, 0x0a, 0x07, 0xd7, 0xfc, 0x10, 0x17, 0x01, 0x04, 0x0e, 
0xff, 0xfc, 0x08, 0x10, 0xf9, 0x10, 0x14, 0xbd, 0xd2, 0xf9, 0xfe, 0x0b, 
0x52, 0xfc, 0x03, 0x09, 0x14, 0x02, 0x03, 0x16, 0xfc, 0x02, 0xff, 0x08, 
0xfa, 0xc6, 0x04, 0xfe, 0xf7, 0x01, 0x05, 0xfa, 0x06, 0x02, 0x05, 0xfc, 
0xfb, 0x04, 0x0b, 0x81, 0xf7, 0xbf, 0x02, 0x01, 0x32, 0xff, 0x06, 0xf7, 
0x09, 0x02, 0x04, 0xf7, 0x05, 0x01, 0x09, 0x06, 0xfe, 0xb5, 0xff, 0x01, 
0xea, 0xfd, 0x0a, 0x0a, 0xe4, 0xfc, 0xec, 0x09, 0x06, 0x09, 0x10, 0xa6, 
0xf9, 0xf5, 0xfc, 0x06, 0x04, 0xff, 0x06, 0x0c, 0xf2, 0x04, 0xff, 0x0d, 
0x16, 0x0b, 0x0d, 0x09, 0x17, 0xfe, 0xff, 0x0e, 0xfb, 0x05, 0x31, 0xe5, 
0x12, 0xf8, 0x0a, 0x2f, 0x12, 0xf2, 0x0a, 0x23, 0x1e, 0xf1, 0x00, 0x0c, 
0x81, 0xfb, 0x1b, 0xc8, 0x01, 0xfe, 0x11, 0x11, 0x14, 0x18, 0x04, 0x0f, 
0x1f, 0x11, 0xfc, 0x12, 0x0f, 0xf9, 0x30, 0xc3, 0x11, 0xfc, 0x0f, 0x0b, 
0x17, 0x13, 0x00, 0x14, 0x22, 0xf1, 0x04, 0x27, 0xe8, 0x02, 0x24, 0xba, 
0xdf, 0x02, 0x06, 0xfa, 0x9e, 0xfa, 0xff, 0xff, 0x04, 0x00, 0x00, 0x00, 
0x80, 0x00, 0x00, 0x00, 0x4f, 0x04, 0x00, 0x00, 0x3d, 0xe2, 0xff, 0xff, 
0xf8, 0x05, 0x00, 0x00, 0x9d, 0xde, 0xff, 0xff, 0x7b, 0xff, 0xff, 0xff, 
0x21, 0xfe, 0xff, 0xff, 0x95, 0xff, 0xff, 0xff, 0xe8, 0x04, 0x00, 0x00, 
0x95, 0xff, 0xff, 0xff, 0x96, 0xfa, 0xff, 0xff, 0x48, 0xf2, 0xff, 0xff, 
0xc9, 0x04, 0x00, 0x00, 0x62, 0xfe, 0xff, 0xff, 0x3f, 0x04, 0x00, 0x00, 
0x61, 0xff, 0xff, 0xff, 0xc8, 0x03, 0x00, 0x00, 0xac, 0xff, 0xff, 0xff, 
0x61, 0xff, 0xff, 0xff, 0x6b, 0xff, 0xff, 0xff, 0x79, 0xff, 0xff, 0xff, 
0x7d, 0xfe, 0xff, 0xff, 0x43, 0xff, 0xff, 0xff, 0x28, 0xf3, 0xff, 0xff, 
0x42, 0xff, 0xff, 0xff, 0x48, 0xfe, 0xff, 0xff, 0xe1, 0xfe, 0xff, 0xff, 
0x26, 0x00, 0x00, 0x00, 0x6b, 0xff, 0xff, 0xff, 0x53, 0xff, 0xff, 0xff, 
0x54, 0xff, 0xff, 0xff, 0xa3, 0xff, 0xff, 0xff, 0x5d, 0xf4, 0xff, 0xff, 
0x2a, 0xfb, 0xff, 0xff, 0x04, 0x00, 0x00, 0x00, 0x00, 0x04, 0x00, 0x00, 
0x81, 0x72, 0x26, 0xfa, 0x5c, 0x3a, 0x28, 0x95, 0xc8, 0xde, 0xeb, 0x82, 
0x46, 0xb7, 0x20, 0xdd, 0x9d, 0xa5, 0xf1, 0xff, 0x05, 0xaa, 0xcb, 0xad, 
0x6a, 0x0a, 0xb4, 0xfa, 0x2b, 0x1c, 0x8a, 0xd0, 0xff, 0xf4, 0x13, 0x0d, 
0x06, 0xd8, 0x07, 0xf1, 0x0e, 0xcb, 0xc6, 0x08, 0xc6, 0xff, 0x1b, 0x10, 
0x08, 0x15, 0x0f, 0x63, 0x02, 0x4f, 0xc8, 0x1e, 0xe1, 0x11, 0x0a, 0x0f, 
0x20, 0x23, 0x0a, 0x81, 0x15, 0xf8, 0x17, 0x0b, 0xd9, 0x33, 0xf1, 0x25, 
0xd7, 0x27, 0x5f, 0x15, 0x2b, 0x18, 0xaf, 0x02, 0xfe, 0xe5, 0xd3, 0x81, 
0xed, 0x93, 0x4c, 0xaf, 0x2e, 0xca, 0xfe, 0xdd, 0xbf, 0xe0, 0xe0, 0x56, 
0xd7, 0x6a, 0xcd, 0xbe, 0xca, 0xbe, 0xea, 0x5f, 0x48, 0x8c, 0x65, 0xe4, 
0x14, 0xc6, 0xe6, 0x9d, 0xac, 0xd0, 0x02, 0x81, 0x24, 0x95, 0xc2, 0x61, 
0x07, 0xa3, 0x0a, 0x28, 0xed, 0x99, 0x84, 0xfd, 0xc1, 0xaf, 0x1d, 0xe3, 
0xfa, 0xed, 0x41, 0x14, 0xfa, 0x9b, 0x1e, 0x08, 0xd3, 0xee, 0x9e, 0x34, 
0x92, 0x12, 0x95, 0x10, 0x18, 0x9d, 0x5f, 0xc3, 0xe1, 0x81, 0x9a, 0xa9, 
0x0d, 0xd5, 0xf3, 0xc2, 0x8c, 0xc1, 0x9c, 0xc1, 0x08, 0x24, 0x60, 0xb4, 
0x40, 0xb1, 0xb2, 0xcd, 0x4a, 0xea, 0xb0, 0x73, 0xd6, 0x62, 0x8f, 0x30, 
0xb6, 0x0f, 0x81, 0x94, 0x5d, 0xf2, 0x94, 0xf6, 0x79, 0x57, 0x22, 0x3d, 
0x04, 0x2c, 0x0f, 0x8f, 0x4b, 0xaf, 0x2f, 0x3d, 0x55, 0x9a, 0xe1, 0xb3, 
0x0d, 0xd6, 0xb2, 0xc6, 0x64, 0x99, 0xf9, 0xfe, 0x51, 0x28, 0xbd, 0xad, 
0x40, 0xe7, 0x81, 0x30, 0x8c, 0x87, 0xcf, 0x10, 0x1e, 0xf8, 0x10, 0xf5, 
0xfd, 0x2e, 0xea, 0x0e, 0xf0, 0x1d, 0x53, 0x1e, 0x1f, 0x14, 0xd5, 0x0b, 
0xe2, 0xcb, 0xd5, 0x95, 0xf0, 0x81, 0x4a, 0xb4, 0x14, 0xce, 0xff, 0xe7, 
0xc6, 0xdf, 0xec, 0x4d, 0x18, 0xff, 0xff, 0xf9, 0xf1, 0x35, 0xf1, 0x26, 
0xe5, 0x3e, 0x57, 0x17, 0x24, 0x1a, 0xd0, 0x19, 0xd3, 0xbe, 0xd1, 0x81, 
0xf8, 0x85, 0x44, 0xba, 0x33, 0xdf, 0xea, 0xe6, 0xcd, 0xd0, 0xe3, 0x5d, 
0x15, 0x10, 0x1c, 0xf4, 0xf0, 0x68, 0xd9, 0x1b, 0xc0, 0x65, 0x3d, 0x13, 
0x60, 0x24, 0xd2, 0x24, 0xfc, 0xc8, 0xca, 0x97, 0xd9, 0x81, 0x4d, 0xa2, 
0x5f, 0xa3, 0xfd, 0xd2, 0xbb, 0xc2, 0xf5, 0x3f, 0x0c, 0x11, 0x21, 0xf2, 
0xf2, 0x48, 0xf5, 0x16, 0xd9, 0x56, 0x52, 0x18, 0x54, 0x25, 0xd7, 0x1d, 
0xda, 0xeb, 0xdf, 0x81, 0xe4, 0x9b, 0x47, 0xb1, 0x52, 0xc9, 0xe1, 0xf0, 
0xa8, 0xdb, 0xd5, 0x67, 0x15, 0xf6, 0x19, 0x0e, 0xe9, 0x29, 0xed, 0x15, 
0xe4, 0x44, 0x3c, 0x21, 0x3b, 0x0a, 0xcf, 0x15, 0xef, 0xca, 0xe0, 0x88, 
0xed, 0x81, 0x42, 0xc9, 0x36, 0xd2, 0xf2, 0xe4, 0xcb, 0xc4, 0xf6, 0x46, 
0xbd, 0x0a, 0xfa, 0x1b, 0x09, 0x32, 0xf8, 0xc2, 0x2a, 0xf1, 0x7f, 0xdd, 
0xf9, 0xaf, 0x0c, 0xf6, 0xd8, 0xe1, 0x1d, 0x0b, 0xe9, 0xdf, 0x77, 0xfa, 
0x26, 0x29, 0x13, 0xfb, 0xf9, 0x2b, 0x29, 0x09, 0x0b, 0x0b, 0x15, 0xfc, 
0xf9, 0xc2, 0x11, 0x03, 0x21, 0xca, 0xd3, 0xf1, 0xdc, 0xec, 0x1d, 0xf8, 
0x13, 0x1d, 0xf8, 0x7e, 0x0a, 0x4b, 0xe6, 0x25, 0xc2, 0xff, 0x18, 0x0c, 
0x0f, 0x27, 0x09, 0x81, 0x0b, 0x0c, 0x22, 0x09, 0xd9, 0x68, 0xfa, 0x33, 
0xd9, 0x7b, 0x5f, 0x27, 0x5e, 0x20, 0xbe, 0x2e, 0xe8, 0xbd, 0xc7, 0x81, 
0xcd, 0xb2, 0x56, 0xb2, 0x5d, 0xab, 0x03, 0xb3, 0xa8, 0xa7, 0xf2, 0x68, 
0x17, 0x10, 0x16, 0xfe, 0xba, 0x01, 0xd5, 0x09, 0xec, 0x1b, 0xe1, 0x07, 
0x2c, 0x2d, 0xb5, 0x24, 0xd5, 0xb8, 0xe7, 0x7f, 0xd5, 0x7b, 0xd2, 0xb9, 
0x0e, 0xc9, 0xd7, 0xd6, 0xcf, 0xec, 0xca, 0x87, 0xb8, 0x37, 0xd7, 0x31, 
0xda, 0x8b, 0xab, 0x9a, 0x15, 0x0f, 0x4a, 0x26, 0x6f, 0xbe, 0x69, 0x84, 
0x81, 0x60, 0xe0, 0x5f, 0xdc, 0xc2, 0x14, 0xcf, 0xdc, 0xeb, 0x39, 0xc8, 
0xdd, 0xc5, 0x46, 0x2a, 0x0a, 0x00, 0x14, 0xef, 0x0b, 0xc6, 0xfe, 0x0c, 
0x29, 0x9f, 0xe8, 0x00, 0xab, 0xfc, 0x14, 0xf1, 0x0f, 0x11, 0x13, 0x79, 
0x0a, 0x5e, 0xdb, 0x3e, 0xd6, 0x00, 0x02, 0x0a, 0x21, 0x33, 0x31, 0x81, 
0xda, 0xf8, 0x20, 0x14, 0x26, 0x18, 0xd5, 0xc0, 0x09, 0xf1, 0x7f, 0xc0, 
0xe6, 0xdd, 0xe8, 0xc5, 0x02, 0xe5, 0x1e, 0x17, 0x06, 0xf4, 0x78, 0x1a, 
0xf2, 0x05, 0xfc, 0x20, 0xe9, 0x17, 0x26, 0xc4, 0xeb, 0xd1, 0x12, 0x27, 
0x9c, 0xd5, 0xae, 0xe8, 0x25, 0xc0, 0xbf, 0x37, 0xdc, 0x97, 0xdb, 0xd1, 
0xb5, 0xb0, 0x42, 0x8e, 0xa0, 0x17, 0xbe, 0x2a, 0x81, 0xba, 0x2a, 0x4f, 
0xf7, 0x22, 0x49, 0x49, 0xdd, 0xbe, 0x4d, 0xde, 0xf7, 0xf2, 0xc3, 0x05, 
0x07, 0x8a, 0x3c, 0x23, 0x7b, 0xb7, 0x4e, 0xa5, 0x8c, 0x13, 0x48, 0x7a, 
0x46, 0xd6, 0xad, 0xf1, 0xc2, 0xda, 0x8d, 0x18, 0x7f, 0xfd, 0x4e, 0x23, 
0x07, 0xfd, 0x03, 0x09, 0x02, 0xd3, 0x09, 0x09, 0x15, 0xe8, 0xc7, 0x04, 
0xe4, 0x05, 0x14, 0x11, 0x0d, 0x08, 0x0a, 0x63, 0xf5, 0x48, 0xd3, 0x22, 
0xe7, 0x00, 0xf6, 0xf9, 0x05, 0x11, 0x16, 0x81, 0x2b, 0xc6, 0xdb, 0x9b, 
0x5d, 0x4b, 0xce, 0x81, 0xe9, 0x97, 0xf6, 0x5a, 0xde, 0x95, 0xc7, 0x50, 
0xeb, 0x59, 0xe2, 0x69, 0xd7, 0xff, 0x99, 0x8f, 0xce, 0xa5, 0xdd, 0xbe, 
0xe0, 0xf1, 0xc4, 0x6b, 0xb1, 0x1c, 0x34, 0xff, 0x61, 0x1d, 0x81, 0xa6, 
0xfd, 0xe3, 0xa6, 0x15, 0xa3, 0xed, 0x23, 0x44, 0x3e, 0x5f, 0xa0, 0xfc, 
0x57, 0x0c, 0x9e, 0x2c, 0x2d, 0x59, 0x84, 0x01, 0x0a, 0xf2, 0x0c, 0xb5, 
0x5e, 0x45, 0x17, 0x58, 0x85, 0x1e, 0x67, 0x81, 0x01, 0x36, 0xed, 0x07, 
0xce, 0x94, 0xca, 0x8e, 0xdb, 0x63, 0x3c, 0xcc, 0xc3, 0x41, 0xc2, 0xc0, 
0x30, 0xf2, 0xc8, 0x8d, 0xcf, 0x2b, 0xbf, 0xfd, 0x12, 0x04, 0xfb, 0x0a, 
0xd8, 0x4a, 0xdf, 0x1f, 0xcf, 0x50, 0x50, 0x17, 0x2f, 0x1e, 0xc9, 0x10, 
0xec, 0xd2, 0xea, 0x9c, 0xe1, 0x81, 0x3e, 0xb9, 0x35, 0xc8, 0x09, 0xe3, 
0xb9, 0xd5, 0xdb, 0x48, 0x26, 0x0d, 0x13, 0xf6, 0xe7, 0x58, 0xd2, 0x2c, 
0xe6, 0x4b, 0x5a, 0x0b, 0x36, 0x28, 0xaf, 0x15, 0xeb, 0xbf, 0xce, 0x81, 
0xe2, 0x8a, 0x48, 0xa8, 0x42, 0xc0, 0xf0, 0xdf, 0xb8, 0xd3, 0xde, 0x5b, 
0xf1, 0x6d, 0xf1, 0xc2, 0x2b, 0x02, 0xfa, 0x2a, 0xa3, 0xad, 0xa3, 0xc6, 
0xfe, 0xa7, 0x8b, 0x05, 0xa4, 0xd2, 0x25, 0xfb, 0x81, 0xee, 0x6c, 0x95, 
0x3a, 0xf2, 0x01, 0x3e, 0x3d, 0x69, 0xc2, 0xfc, 0xce, 0x82, 0x31, 0xd7, 
0x57, 0xe9, 0xde, 0xd1, 0xd5, 0x32, 0xc3, 0xc7, 0x09, 0x81, 0x9c, 0xa1, 
0xce, 0xbd, 0xb4, 0x56, 0x31, 0xaa, 0xc7, 0x2c, 0xff, 0xe9, 0xa0, 0x0d, 
0x1e, 0x84, 0xf2, 0xfb, 0xc8, 0xf7, 0xc9, 0x4d, 0xd1, 0xc7, 0x33, 0xfe, 
0xce, 0xfe, 0xda, 0x3a, 0xa4, 0xe7, 0xed, 0x00, 0xff, 0xca, 0x14, 0xfe, 
0xd9, 0x1d, 0x18, 0xc8, 0xec, 0x81, 0xbd, 0x11, 0xaa, 0x56, 0x18, 0xcd, 
0xf0, 0x0c, 0x0f, 0x07, 0x0f, 0xc9, 0x0d, 0xf3, 0x2a, 0xba, 0xce, 0x0d, 
0xbe, 0x08, 0x19, 0x10, 0x0d, 0x15, 0x22, 0x53, 0x02, 0x49, 0xd1, 0x21, 
0xe5, 0xf8, 0x06, 0x1b, 0x13, 0x2c, 0x1c, 0x81, 0x03, 0xf1, 0xf7, 0xf8, 
0x08, 0xd4, 0x11, 0x01, 0x1a, 0xd4, 0xca, 0x0c, 0xe1, 0x11, 0x1b, 0xff, 
0x05, 0x0b, 0x08, 0x5f, 0xff, 0x49, 0xdf, 0x27, 0xcf, 0x09, 0xf4, 0x0b, 
0x0c, 0x1d, 0x0a, 0x81, 0x36, 0xff, 0xff, 0xff, 0x04, 0x00, 0x00, 0x00, 
0x80, 0x00, 0x00, 0x00, 0x7d, 0xea, 0xff, 0xff, 0x8e, 0x0f, 0x00, 0x00, 
0xf5, 0xff, 0xff, 0xff, 0x45, 0xef, 0xff, 0xff, 0x53, 0xfe, 0xff, 0xff, 
0x69, 0xfa, 0xff, 0xff, 0x42, 0xec, 0xff, 0xff, 0x06, 0x07, 0x00, 0x00, 
0x51, 0xff, 0xff, 0xff, 0xe6, 0xfc, 0xff, 0xff, 0xc5, 0xf7, 0xff, 0xff, 
0xd0, 0xfe, 0xff, 0xff, 0xe9, 0x12, 0x00, 0x00, 0x4a, 0x12, 0x00, 0x00, 
0x62, 0xf1, 0xff, 0xff, 0xde, 0x05, 0x00, 0x00, 0x7a, 0xef, 0xff, 0xff, 
0x10, 0x14, 0x00, 0x00, 0xfa, 0x23, 0x00, 0x00, 0xa6, 0xd7, 0xff, 0xff, 
0x2e, 0xf8, 0xff, 0xff, 0x15, 0x11, 0x00, 0x00, 0x41, 0xea, 0xff, 0xff, 
0x73, 0xd7, 0xff, 0xff, 0x5a, 0xee, 0xff, 0xff, 0x12, 0x06, 0x00, 0x00, 
0x3f, 0xfe, 0xff, 0xff, 0x14, 0xea, 0xff, 0xff, 0x60, 0xf5, 0xff, 0xff, 
0x56, 0x09, 0x00, 0x00, 0x24, 0x12, 0x00, 0x00, 0x57, 0x0f, 0x00, 0x00, 
0xc2, 0xff, 0xff, 0xff, 0x04, 0x00, 0x00, 0x00, 0x20, 0x00, 0x00, 0x00, 
0x04, 0x2a, 0x9f, 0xfe, 0xfc, 0x00, 0x0b, 0x97, 0x9a, 0xae, 0xb5, 0x9a, 
0x1e, 0x1a, 0xb0, 0xb1, 0x04, 0x21, 0x7f, 0x09, 0x04, 0x30, 0xf6, 0x09, 
0x09, 0x9c, 0x9e, 0x0b, 0xfc, 0xfe, 0x24, 0x28, 0xee, 0xff, 0xff, 0xff, 
0x04, 0x00, 0x00, 0x00, 0x04, 0x00, 0x00, 0x00, 0xf1, 0x01, 0x00, 0x00, 
0x00, 0x00, 0x06, 0x00, 0x08, 0x00, 0x04, 0x00, 0x06, 0x00, 0x00, 0x00, 
0x04, 0x00, 0x00, 0x00, 0x08, 0x00, 0x00, 0x00, 0x01, 0x00, 0x00, 0x00, 
0x02, 0x00, 0x00, 0x00, 0x00, 0xed, 0xff, 0xff, 0x04, 0xed, 0xff, 0xff, 
0x0f, 0x00, 0x00, 0x00, 0x4d, 0x4c, 0x49, 0x52, 0x20, 0x43, 0x6f, 0x6e, 
0x76, 0x65, 0x72, 0x74, 0x65, 0x64, 0x2e, 0x00, 0x01, 0x00, 0x00, 0x00, 
0x14, 0x00, 0x00, 0x00, 0x00, 0x00, 0x0e, 0x00, 0x18, 0x00, 0x14, 0x00, 
0x10, 0x00, 0x0c, 0x00, 0x08, 0x00, 0x04, 0x00, 0x0e, 0x00, 0x00, 0x00, 
0x14, 0x00, 0x00, 0x00, 0x1c, 0x00, 0x00, 0x00, 0x40, 0x02, 0x00, 0x00, 
0x44, 0x02, 0x00, 0x00, 0x48, 0x02, 0x00, 0x00, 0x04, 0x00, 0x00, 0x00, 
0x6d, 0x61, 0x69, 0x6e, 0x00, 0x00, 0x00, 0x00, 0x09, 0x00, 0x00, 0x00, 
0x08, 0x02, 0x00, 0x00, 0xac, 0x01, 0x00, 0x00, 0x48, 0x01, 0x00, 0x00, 
0x04, 0x01, 0x00, 0x00, 0xd0, 0x00, 0x00, 0x00, 0x8c, 0x00, 0x00, 0x00, 
0x54, 0x00, 0x00, 0x00, 0x30, 0x00, 0x00, 0x00, 0x04, 0x00, 0x00, 0x00, 
0x26, 0xfe, 0xff, 0xff, 0x08, 0x00, 0x00, 0x00, 0x0c, 0x00, 0x00, 0x00, 
0x01, 0x00, 0x00, 0x00, 0x12, 0x00, 0x00, 0x00, 0x01, 0x00, 0x00, 0x00, 
0x11, 0x00, 0x00, 0x00, 0x00, 0x00, 0x0a, 0x00, 0x10, 0x00, 0x0c, 0x00, 
0x08, 0x00, 0x04, 0x00, 0x0a, 0x00, 0x00, 0x00, 0x0c, 0x00, 0x00, 0x00, 
0x10, 0x00, 0x00, 0x00, 0x05, 0x00, 0x00, 0x00, 0x01, 0x00, 0x00, 0x00, 
0x11, 0x00, 0x00, 0x00, 0x01, 0x00, 0x00, 0x00, 0x10, 0x00, 0x00, 0x00, 
0xca, 0xfe, 0xff, 0xff, 0x14, 0x00, 0x00, 0x00, 0x00, 0x00, 0x00, 0x08, 
0x10, 0x00, 0x00, 0x00, 0x14, 0x00, 0x00, 0x00, 0x04, 0x00, 0x00, 0x00, 
0xe0, 0xed, 0xff, 0xff, 0x01, 0x00, 0x00, 0x00, 0x10, 0x00, 0x00, 0x00, 
0x03, 0x00, 0x00, 0x00, 0x0f, 0x00, 0x00, 0x00, 0x03, 0x00, 0x00, 0x00, 
0x02, 0x00, 0x00, 0x00, 0xfe, 0xfe, 0xff, 0xff, 0x1c, 0x00, 0x00, 0x00, 
0x00, 0x00, 0x00, 0x08, 0x1c, 0x00, 0x00, 0x00, 0x20, 0x00, 0x00, 0x00, 
0x04, 0x00, 0x00, 0x00, 0x00, 0x00, 0x06, 0x00, 0x08, 0x00, 0x07, 0x00, 
0x06, 0x00, 0x00, 0x00, 0x00, 0x00, 0x00, 0x01, 0x01, 0x00, 0x00, 0x00, 
0x0f, 0x00, 0x00, 0x00, 0x03, 0x00, 0x00, 0x00, 0x0e, 0x00, 0x00, 0x00, 
0x05, 0x00, 0x00, 0x00, 0x04, 0x00, 0x00, 0x00, 0x3e, 0xff, 0xff, 0xff, 
0x14, 0x00, 0x00, 0x00, 0x00, 0x00, 0x00, 0x1b, 0x10, 0x00, 0x00, 0x00, 
0x14, 0x00, 0x00, 0x00, 0x03, 0x00, 0x00, 0x00, 0x54, 0xee, 0xff, 0xff, 
0x01, 0x00, 0x00, 0x00, 0x0e, 0x00, 0x00, 0x00, 0x02, 0x00, 0x00, 0x00, 
0x0d, 0x00, 0x00, 0x00, 0x01, 0x00, 0x00, 0x00, 0x6e, 0xff, 0xff, 0xff, 
0x14, 0x00, 0x00, 0x00, 0x00, 0x00, 0x00, 0x01, 0x1c, 0x00, 0x00, 0x00, 
0x20, 0x00, 0x00, 0x00, 0x01, 0x00, 0x00, 0x00, 0x60, 0xff, 0xff, 0xff, 
0x00, 0x00, 0x00, 0x01, 0x01, 0x00, 0x00, 0x00, 0x01, 0x00, 0x00, 0x00, 
0x01, 0x00, 0x00, 0x00, 0x0d, 0x00, 0x00, 0x00, 0x03, 0x00, 0x00, 0x00, 
0x0c, 0x00, 0x00, 0x00, 0x07, 0x00, 0x00, 0x00, 0x06, 0x00, 0x00, 0x00, 
0xae, 0xff, 0xff, 0xff, 0x24, 0x00, 0x00, 0x00, 0x00, 0x00, 0x00, 0x05, 
0x34, 0x00, 0x00, 0x00, 0x38, 0x00, 0x00, 0x00, 0x02, 0x00, 0x00, 0x00, 
0x00, 0x00, 0x0e, 0x00, 0x18, 0x00, 0x17, 0x00, 0x10, 0x00, 0x0c, 0x00, 
0x08, 0x00, 0x04, 0x00, 0x0e, 0x00, 0x00, 0x00, 0x02, 0x00, 0x00, 0x00, 
0x02, 0x00, 0x00, 0x00, 0x02, 0x00, 0x00, 0x00, 0x02, 0x00, 0x00, 0x00, 
0x00, 0x00, 0x00, 0x01, 0x01, 0x00, 0x00, 0x00, 0x0c, 0x00, 0x00, 0x00, 
0x01, 0x00, 0x00, 0x00, 0x0b, 0x00, 0x00, 0x00, 0x00, 0x00, 0x0e, 0x00, 
0x18, 0x00, 0x14, 0x00, 0x10, 0x00, 0x0c, 0x00, 0x0b, 0x00, 0x04, 0x00, 
0x0e, 0x00, 0x00, 0x00, 0x20, 0x00, 0x00, 0x00, 0x00, 0x00, 0x00, 0x01, 
0x28, 0x00, 0x00, 0x00, 0x2c, 0x00, 0x00, 0x00, 0x01, 0x00, 0x00, 0x00, 
0x0c, 0x00, 0x10, 0x00, 0x00, 0x00, 0x0c, 0x00, 0x08, 0x00, 0x07, 0x00, 
0x0c, 0x00, 0x00, 0x00, 0x00, 0x00, 0x00, 0x01, 0x01, 0x00, 0x00, 0x00, 
0x01, 0x00, 0x00, 0x00, 0x01, 0x00, 0x00, 0x00, 0x0b, 0x00, 0x00, 0x00, 
0x03, 0x00, 0x00, 0x00, 0x0a, 0x00, 0x00, 0x00, 0x09, 0x00, 0x00, 0x00, 
0x08, 0x00, 0x00, 0x00, 0x00, 0x00, 0x0a, 0x00, 0x0c, 0x00, 0x00, 0x00, 
0x08, 0x00, 0x04, 0x00, 0x0a, 0x00, 0x00, 0x00, 0x08, 0x00, 0x00, 0x00, 
0x0c, 0x00, 0x00, 0x00, 0x01, 0x00, 0x00, 0x00, 0x0a, 0x00, 0x00, 0x00, 
0x01, 0x00, 0x00, 0x00, 0x00, 0x00, 0x00, 0x00, 0x01, 0x00, 0x00, 0x00, 
0x12, 0x00, 0x00, 0x00, 0x01, 0x00, 0x00, 0x00, 0x00, 0x00, 0x00, 0x00, 
0x13, 0x00, 0x00, 0x00, 0xa8, 0x10, 0x00, 0x00, 0x4c, 0x10, 0x00, 0x00, 
0xd4, 0x0f, 0x00, 0x00, 0x70, 0x0f, 0x00, 0x00, 0x9c, 0x0d, 0x00, 0x00, 
0xc0, 0x0b, 0x00, 0x00, 0xec, 0x09, 0x00, 0x00, 0x08, 0x08, 0x00, 0x00, 
0xf4, 0x06, 0x00, 0x00, 0xd0, 0x05, 0x00, 0x00, 0x4c, 0x05, 0x00, 0x00, 
0x78, 0x04, 0x00, 0x00, 0xdc, 0x03, 0x00, 0x00, 0xe8, 0x02, 0x00, 0x00, 
0x54, 0x02, 0x00, 0x00, 0xa0, 0x01, 0x00, 0x00, 0x04, 0x01, 0x00, 0x00, 
0x80, 0x00, 0x00, 0x00, 0x04, 0x00, 0x00, 0x00, 0xba, 0xef, 0xff, 0xff, 
0x00, 0x00, 0x00, 0x01, 0x18, 0x00, 0x00, 0x00, 0x20, 0x00, 0x00, 0x00, 
0x3c, 0x00, 0x00, 0x00, 0x13, 0x00, 0x00, 0x00, 0x00, 0x00, 0x00, 0x03, 
0x50, 0x00, 0x00, 0x00, 0x02, 0x00, 0x00, 0x00, 0xff, 0xff, 0xff, 0xff, 
0x01, 0x00, 0x00, 0x00, 0x9c, 0xef, 0xff, 0xff, 0x08, 0x00, 0x00, 0x00, 
0x10, 0x00, 0x00, 0x00, 0x01, 0x00, 0x00, 0x00, 0x00, 0x00, 0x00, 0x00, 
0x00, 0x00, 0x00, 0x00, 0x01, 0x00, 0x00, 0x00, 0x00, 0x00, 0x80, 0x3b, 
0x1b, 0x00, 0x00, 0x00, 0x53, 0x74, 0x61, 0x74, 0x65, 0x66, 0x75, 0x6c, 
0x50, 0x61, 0x72, 0x74, 0x69, 0x74, 0x69, 0x6f, 0x6e, 0x65, 0x64, 0x43, 
0x61, 0x6c, 0x6c, 0x5f, 0x31, 0x3a, 0x30, 0x00, 0x02, 0x00, 0x00, 0x00, 
0x01, 0x00, 0x00, 0x00, 0x01, 0x00, 0x00, 0x00, 0x32, 0xf0, 0xff, 0xff, 
0x00, 0x00, 0x00, 0x01, 0x18, 0x00, 0x00, 0x00, 0x20, 0x00, 0x00, 0x00, 
0x40, 0x00, 0x00, 0x00, 0x12, 0x00, 0x00, 0x00, 0x00, 0x00, 0x00, 0x09, 
0x58, 0x00, 0x00, 0x00, 0x02, 0x00, 0x00, 0x00, 0xff, 0xff, 0xff, 0xff, 
0x01, 0x00, 0x00, 0x00, 0x14, 0xf0, 0xff, 0xff, 0x08, 0x00, 0x00, 0x00, 
0x14, 0x00, 0x00, 0x00, 0x01, 0x00, 0x00, 0x00, 0x80, 0xff, 0xff, 0xff, 
0xff, 0xff, 0xff, 0xff, 0x00, 0x00, 0x00, 0x00, 0x01, 0x00, 0x00, 0x00, 
0x00, 0x00, 0x80, 0x3b, 0x1c, 0x00, 0x00, 0x00, 0x53, 0x74, 0x61, 0x74, 
0x65, 0x66, 0x75, 0x6c, 0x50, 0x61, 0x72, 0x74, 0x69, 0x74, 0x69, 0x6f, 
0x6e, 0x65, 0x64, 0x43, 0x61, 0x6c, 0x6c, 0x5f, 0x31, 0x3a, 0x30, 0x31, 
0x00, 0x00, 0x00, 0x00, 0x02, 0x00, 0x00, 0x00, 0x01, 0x00, 0x00, 0x00, 
0x01, 0x00, 0x00, 0x00, 0xb2, 0xf0, 0xff, 0xff, 0x00, 0x00, 0x00, 0x01, 
0x18, 0x00, 0x00, 0x00, 0x20, 0x00, 0x00, 0x00, 0x3c, 0x00, 0x00, 0x00, 
0x11, 0x00, 0x00, 0x00, 0x00, 0x00, 0x00, 0x09, 0x70, 0x00, 0x00, 0x00, 
0x02, 0x00, 0x00, 0x00, 0xff, 0xff, 0xff, 0xff, 0x01, 0x00, 0x00, 0x00, 
0x94, 0xf0, 0xff, 0xff, 0x08, 0x00, 0x00, 0x00, 0x10, 0x00, 0x00, 0x00, 
0x01, 0x00, 0x00, 0x00, 0x43, 0x00, 0x00, 0x00, 0x00, 0x00, 0x00, 0x00, 
0x01, 0x00, 0x00, 0x00, 0x69, 0x6f, 0x76, 0x3d, 0x38, 0x00, 0x00, 0x00, 
0x73, 0x65, 0x71, 0x75, 0x65, 0x6e, 0x74, 0x69, 0x61, 0x6c, 0x5f, 0x31, 
0x2f, 0x64, 0x65, 0x6e, 0x73, 0x65, 0x5f, 0x31, 0x5f, 0x32, 0x2f, 0x4d, 
0x61, 0x74, 0x4d, 0x75, 0x6c, 0x3b, 0x73, 0x65, 0x71, 0x75, 0x65, 0x6e, 
0x74, 0x69, 0x61, 0x6c, 0x5f, 0x31, 0x2f, 0x64, 0x65, 0x6e, 0x73, 0x65, 
0x5f, 0x31, 0x5f, 0x32, 0x2f, 0x41, 0x64, 0x64, 0x00, 0x00, 0x00, 0x00, 
0x02, 0x00, 0x00, 0x00, 0x01, 0x00, 0x00, 0x00, 0x01, 0x00, 0x00, 0x00, 
0x4a, 0xf1, 0xff, 0xff, 0x00, 0x00, 0x00, 0x01, 0x18, 0x00, 0x00, 0x00, 
0x20, 0x00, 0x00, 0x00, 0x3c, 0x00, 0x00, 0x00, 0x10, 0x00, 0x00, 0x00, 
0x00, 0x00, 0x00, 0x09, 0x88, 0x00, 0x00, 0x00, 0x02, 0x00, 0x00, 0x00, 
0xff, 0xff, 0xff, 0xff, 0x20, 0x00, 0x00, 0x00, 0x2c, 0xf1, 0xff, 0xff, 
0x08, 0x00, 0x00, 0x00, 0x10, 0x00, 0x00, 0x00, 0x01, 0x00, 0x00, 0x00, 
0x80, 0xff, 0xff, 0xff, 0xff, 0xff, 0xff, 0xff, 0x01, 0x00, 0x00, 0x00, 
0x88, 0xbc, 0xcf, 0x3b, 0x52, 0x00, 0x00, 0x00, 0x73, 0x65, 0x71, 0x75, 
0x65, 0x6e, 0x74, 0x69, 0x61, 0x6c, 0x5f, 0x31, 0x2f, 0x64, 0x65, 0x6e, 
0x73, 0x65, 0x5f, 0x31, 0x2f, 0x4d, 0x61, 0x74, 0x4d, 0x75, 0x6c, 0x3b, 
0x73, 0x65, 0x71, 0x75, 0x65, 0x6e, 0x74, 0x69, 0x61, 0x6c, 0x5f, 0x31, 
0x2f, 0x64, 0x65, 0x6e, 0x73, 0x65, 0x5f, 0x31, 0x2f, 0x52, 0x65, 0x6c, 
0x75, 0x3b, 0x73, 0x65, 0x71, 0x75, 0x65, 0x6e, 0x74, 0x69, 0x61, 0x6c, 
0x5f, 0x31, 0x2f, 0x64, 0x65, 0x6e, 0x73, 0x65, 0x5f, 0x31, 0x2f, 0x42, 
0x69, 0x61, 0x73, 0x41, 0x64, 0x64, 0x00, 0x00, 0x02, 0x00, 0x00, 0x00, 
0x01, 0x00, 0x00, 0x00, 0x20, 0x00, 0x00, 0x00, 0xfa, 0xf1, 0xff, 0xff, 
0x00, 0x00, 0x00, 0x01, 0x18, 0x00, 0x00, 0x00, 0x20, 0x00, 0x00, 0x00, 
0x40, 0x00, 0x00, 0x00, 0x0f, 0x00, 0x00, 0x00, 0x00, 0x00, 0x00, 0x09, 
0x68, 0x00, 0x00, 0x00, 0x02, 0x00, 0x00, 0x00, 0xff, 0xff, 0xff, 0xff, 
0x20, 0x00, 0x00, 0x00, 0xdc, 0xf1, 0xff, 0xff, 0x08, 0x00, 0x00, 0x00, 
0x14, 0x00, 0x00, 0x00, 0x01, 0x00, 0x00, 0x00, 0x80, 0xff, 0xff, 0xff, 
0xff, 0xff, 0xff, 0xff, 0x00, 0x00, 0x00, 0x00, 0x01, 0x00, 0x00, 0x00, 
0xbc, 0xe6, 0xf3, 0x3a, 0x2c, 0x00, 0x00, 0x00, 0x73, 0x65, 0x71, 0x75, 
0x65, 0x6e, 0x74, 0x69, 0x61, 0x6c, 0x5f, 0x31, 0x2f, 0x67, 0x6c, 0x6f, 
0x62, 0x61, 0x6c, 0x5f, 0x61, 0x76, 0x65, 0x72, 0x61, 0x67, 0x65, 0x5f, 
0x70, 0x6f, 0x6f, 0x6c, 0x69, 0x6e, 0x67, 0x32, 0x64, 0x5f, 0x31, 0x2f, 
0x4d, 0x65, 0x61, 0x6e, 0x00, 0x00, 0x00, 0x00, 0x02, 0x00, 0x00, 0x00, 
0x01, 0x00, 0x00, 0x00, 0x20, 0x00, 0x00, 0x00, 0x8a, 0xf2, 0xff, 0xff, 
0x00, 0x00, 0x00, 0x01, 0x18, 0x00, 0x00, 0x00, 0x28, 0x00, 0x00, 0x00, 
0x44, 0x00, 0x00, 0x00, 0x0e, 0x00, 0x00, 0x00, 0x00, 0x00, 0x00, 0x09, 
0xc0, 0x00, 0x00, 0x00, 0x04, 0x00, 0x00, 0x00, 0xff, 0xff, 0xff, 0xff, 
0x30, 0x00, 0x00, 0x00, 0x30, 0x00, 0x00, 0x00, 0x20, 0x00, 0x00, 0x00, 
0x74, 0xf2, 0xff, 0xff, 0x08, 0x00, 0x00, 0x00, 0x10, 0x00, 0x00, 0x00, 
0x01, 0x00, 0x00, 0x00, 0x80, 0xff, 0xff, 0xff, 0xff, 0xff, 0xff, 0xff, 
0x01, 0x00, 0x00, 0x00, 0x37, 0xa6, 0xe9, 0x3c, 0x80, 0x00, 0x00, 0x00, 
0x73, 0x65, 0x71, 0x75, 0x65, 0x6e, 0x74, 0x69, 0x61, 0x6c, 0x5f, 0x31, 
0x2f, 0x63, 0x6f, 0x6e, 0x76, 0x32, 0x64, 0x5f, 0x31, 0x5f, 0x32, 0x2f, 
0x52, 0x65, 0x6c, 0x75, 0x3b, 0x73, 0x65, 0x71, 0x75, 0x65, 0x6e, 0x74, 
0x69, 0x61, 0x6c, 0x5f, 0x31, 0x2f, 0x63, 0x6f, 0x6e, 0x76, 0x32, 0x64, 
0x5f, 0x31, 0x5f, 0x32, 0x2f, 0x42, 0x69, 0x61, 0x73, 0x41, 0x64, 0x64, 
0x3b, 0x73, 0x65, 0x71, 0x75, 0x65, 0x6e, 0x74, 0x69, 0x61, 0x6c, 0x5f, 
0x31, 0x2f, 0x63, 0x6f, 0x6e, 0x76, 0x32, 0x64, 0x5f, 0x31, 0x5f, 0x32, 
0x2f, 0x63, 0x6f, 0x6e, 0x76, 0x6f, 0x6c, 0x75, 0x74, 0x69, 0x6f, 0x6e, 
0x3b, 0x73, 0x65, 0x71, 0x75, 0x65, 0x6e, 0x74, 0x69, 0x61, 0x6c, 0x5f, 
0x31, 0x2f, 0x63, 0x6f, 0x6e, 0x76, 0x32, 0x64, 0x5f, 0x31, 0x5f, 0x32, 
0x2f, 0x53, 0x71, 0x75, 0x65, 0x65, 0x7a, 0x65, 0x00, 0x00, 0x00, 0x00, 
0x04, 0x00, 0x00, 0x00, 0x01, 0x00, 0x00, 0x00, 0x30, 0x00, 0x00, 0x00, 
0x30, 0x00, 0x00, 0x00, 0x20, 0x00, 0x00, 0x00, 0x7a, 0xf3, 0xff, 0xff, 
0x00, 0x00, 0x00, 0x01, 0x18, 0x00, 0x00, 0x00, 0x28, 0x00, 0x00, 0x00, 
0x48, 0x00, 0x00, 0x00, 0x0d, 0x00, 0x00, 0x00, 0x00, 0x00, 0x00, 0x09, 
0x68, 0x00, 0x00, 0x00, 0x04, 0x00, 0x00, 0x00, 0xff, 0xff, 0xff, 0xff, 
0x30, 0x00, 0x00, 0x00, 0x30, 0x00, 0x00, 0x00, 0x10, 0x00, 0x00, 0x00, 
0x64, 0xf3, 0xff, 0xff, 0x08, 0x00, 0x00, 0x00, 0x14, 0x00, 0x00, 0x00, 
0x01, 0x00, 0x00, 0x00, 0x80, 0xff, 0xff, 0xff, 0xff, 0xff, 0xff, 0xff, 
0x00, 0x00, 0x00, 0x00, 0x01, 0x00, 0x00, 0x00, 0x18, 0x3e, 0xe3, 0x3b, 
0x26, 0x00, 0x00, 0x00, 0x73, 0x65, 0x71, 0x75, 0x65, 0x6e, 0x74, 0x69, 
0x61, 0x6c, 0x5f, 0x31, 0x2f, 0x6d, 0x61, 0x78, 0x5f, 0x70, 0x6f, 0x6f, 
0x6c, 0x69, 0x6e, 0x67, 0x32, 0x64, 0x5f, 0x31, 0x2f, 0x4d, 0x61, 0x78, 
0x50, 0x6f, 0x6f, 0x6c, 0x32, 0x64, 0x00, 0x00, 0x04, 0x00, 0x00, 0x00, 
0x01, 0x00, 0x00, 0x00, 0x30, 0x00, 0x00, 0x00, 0x30, 0x00, 0x00, 0x00, 
0x10, 0x00, 0x00, 0x00, 0x12, 0xf4, 0xff, 0xff, 0x00, 0x00, 0x00, 0x01, 
0x18, 0x00, 0x00, 0x00, 0x28, 0x00, 0x00, 0x00, 0x48, 0x00, 0x00, 0x00, 
0x0c, 0x00, 0x00, 0x00, 0x00, 0x00, 0x00, 0x09, 0xa0, 0x00, 0x00, 0x00, 
0x04, 0x00, 0x00, 0x00, 0xff, 0xff, 0xff, 0xff, 0x60, 0x00, 0x00, 0x00, 
0x60, 0x00, 0x00, 0x00, 0x10, 0x00, 0x00, 0x00, 0xfc, 0xf3, 0xff, 0xff, 
0x08, 0x00, 0x00, 0x00, 0x14, 0x00, 0x00, 0x00, 0x01, 0x00, 0x00, 0x00, 
0x80, 0xff, 0xff, 0xff, 0xff, 0xff, 0xff, 0xff, 0x00, 0x00, 0x00, 0x00, 
0x01, 0x00, 0x00, 0x00, 0x18, 0x3e, 0xe3, 0x3b, 0x5c, 0x00, 0x00, 0x00, 
0x73, 0x65, 0x71, 0x75, 0x65, 0x6e, 0x74, 0x69, 0x61, 0x6c, 0x5f, 0x31, 
0x2f, 0x63, 0x6f, 0x6e, 0x76, 0x32, 0x64, 0x5f, 0x31, 0x2f, 0x52, 0x65, 
0x6c, 0x75, 0x3b, 0x73, 0x65, 0x71, 0x75, 0x65, 0x6e, 0x74, 0x69, 0x61, 
0x6c, 0x5f, 0x31, 0x2f, 0x63, 0x6f, 0x6e, 0x76, 0x32, 0x64, 0x5f, 0x31, 
0x2f, 0x42, 0x69, 0x61, 0x73, 0x41, 0x64, 0x64, 0x3b, 0x73, 0x65, 0x71, 
0x75, 0x65, 0x6e, 0x74, 0x69, 0x61, 0x6c, 0x5f, 0x31, 0x2f, 0x63, 0x6f, 
0x6e, 0x76, 0x32, 0x64, 0x5f, 0x31, 0x2f, 0x63, 0x6f, 0x6e, 0x76, 0x6f, 
0x6c, 0x75, 0x74, 0x69, 0x6f, 0x6e, 0x3b, 0x31, 0x00, 0x00, 0x00, 0x00, 
0x04, 0x00, 0x00, 0x00, 0x01, 0x00, 0x00, 0x00, 0x60, 0x00, 0x00, 0x00, 
0x60, 0x00, 0x00, 0x00, 0x10, 0x00, 0x00, 0x00, 0xe2, 0xf4, 0xff, 0xff, 
0x00, 0x00, 0x00, 0x01, 0x18, 0x00, 0x00, 0x00, 0x28, 0x00, 0x00, 0x00, 
0x48, 0x00, 0x00, 0x00, 0x0b, 0x00, 0x00, 0x00, 0x00, 0x00, 0x00, 0x09, 
0x50, 0x00, 0x00, 0x00, 0x04, 0x00, 0x00, 0x00, 0xff, 0xff, 0xff, 0xff, 
0x60, 0x00, 0x00, 0x00, 0x60, 0x00, 0x00, 0x00, 0x01, 0x00, 0x00, 0x00, 
0xcc, 0xf4, 0xff, 0xff, 0x08, 0x00, 0x00, 0x00, 0x14, 0x00, 0x00, 0x00, 
0x01, 0x00, 0x00, 0x00, 0x80, 0xff, 0xff, 0xff, 0xff, 0xff, 0xff, 0xff, 
0x00, 0x00, 0x00, 0x00, 0x01, 0x00, 0x00, 0x00, 0x81, 0x80, 0x80, 0x3b, 
0x0c, 0x00, 0x00, 0x00, 0x74, 0x66, 0x6c, 0x2e, 0x71, 0x75, 0x61, 0x6e, 
0x74, 0x69, 0x7a, 0x65, 0x00, 0x00, 0x00, 0x00, 0x04, 0x00, 0x00, 0x00, 
0x01, 0x00, 0x00, 0x00, 0x60, 0x00, 0x00, 0x00, 0x60, 0x00, 0x00, 0x00, 
0x01, 0x00, 0x00, 0x00, 0xba, 0xf5, 0xff, 0xff, 0x00, 0x00, 0x00, 0x01, 
0x14, 0x00, 0x00, 0x00, 0xe8, 0x00, 0x00, 0x00, 0x0a, 0x00, 0x00, 0x00, 
0x00, 0x00, 0x00, 0x09, 0xf4, 0x00, 0x00, 0x00, 0x34, 0xf5, 0xff, 0xff, 
0x08, 0x00, 0x00, 0x00, 0x8c, 0x00, 0x00, 0x00, 0x10, 0x00, 0x00, 0x00, 
0x00, 0x00, 0x00, 0x00, 0x00, 0x00, 0x00, 0x00, 0x00, 0x00, 0x00, 0x00, 
0x00, 0x00, 0x00, 0x00, 0x00, 0x00, 0x00, 0x00, 0x00, 0x00, 0x00, 0x00, 
0x00, 0x00, 0x00, 0x00, 0x00, 0x00, 0x00, 0x00, 0x00, 0x00, 0x00, 0x00, 
0x00, 0x00, 0x00, 0x00, 0x00, 0x00, 0x00, 0x00, 0x00, 0x00, 0x00, 0x00, 
0x00, 0x00, 0x00, 0x00, 0x00, 0x00, 0x00, 0x00, 0x00, 0x00, 0x00, 0x00, 
0x00, 0x00, 0x00, 0x00, 0x00, 0x00, 0x00, 0x00, 0x00, 0x00, 0x00, 0x00, 
0x00, 0x00, 0x00, 0x00, 0x00, 0x00, 0x00, 0x00, 0x00, 0x00, 0x00, 0x00, 
0x00, 0x00, 0x00, 0x00, 0x00, 0x00, 0x00, 0x00, 0x00, 0x00, 0x00, 0x00, 
0x00, 0x00, 0x00, 0x00, 0x00, 0x00, 0x00, 0x00, 0x00, 0x00, 0x00, 0x00, 
0x00, 0x00, 0x00, 0x00, 0x00, 0x00, 0x00, 0x00, 0x00, 0x00, 0x00, 0x00, 
0x00, 0x00, 0x00, 0x00, 0x00, 0x00, 0x00, 0x00, 0x00, 0x00, 0x00, 0x00, 
0x10, 0x00, 0x00, 0x00, 0x13, 0xce, 0xbb, 0x3b, 0x72, 0x4f, 0x86, 0x3b, 
0x15, 0x78, 0x90, 0x3b, 0xcb, 0x1d, 0x48, 0x3c, 0x6f, 0x41, 0x6a, 0x3b, 
0xc2, 0x69, 0x96, 0x3b, 0xae, 0xbe, 0x50, 0x3b, 0x45, 0xda, 0xab, 0x3b, 
0xe5, 0x2e, 0x5f, 0x3c, 0x88, 0xe1, 0xd4, 0x3a, 0x0f, 0xd6, 0x96, 0x3b, 
0xb8, 0x08, 0x7b, 0x3b, 0x9d, 0xc3, 0x0a, 0x3c, 0x15, 0x20, 0xd1, 0x3a, 
0xc8, 0xcb, 0xa3, 0x3b, 0x47, 0x79, 0xba, 0x3b, 0x12, 0x00, 0x00, 0x00, 
0x74, 0x66, 0x6c, 0x2e, 0x70, 0x73, 0x65, 0x75, 0x64, 0x6f, 0x5f, 0x71, 
0x63, 0x6f, 0x6e, 0x73, 0x74, 0x37, 0x00, 0x00, 0x04, 0x00, 0x00, 0x00, 
0x10, 0x00, 0x00, 0x00, 0x03, 0x00, 0x00, 0x00, 0x03, 0x00, 0x00, 0x00, 
0x01, 0x00, 0x00, 0x00, 0xda, 0xf6, 0xff, 0xff, 0x00, 0x00, 0x00, 0x01, 
0x14, 0x00, 0x00, 0x00, 0xe4, 0x00, 0x00, 0x00, 0x09, 0x00, 0x00, 0x00, 
0x00, 0x00, 0x00, 0x02, 0xf0, 0x00, 0x00, 0x00, 0x54, 0xf6, 0xff, 0xff, 
0x08, 0x00, 0x00, 0x00, 0x88, 0x00, 0x00, 0x00, 0x10, 0x00, 0x00, 0x00, 
0x00, 0x00, 0x00, 0x00, 0x00, 0x00, 0x00, 0x00, 0x00, 0x00, 0x00, 0x00, 
0x00, 0x00, 0x00, 0x00, 0x00, 0x00, 0x00, 0x00, 0x00, 0x00, 0x00, 0x00, 
0x00, 0x00, 0x00, 0x00, 0x00, 0x00, 0x00, 0x00, 0x00, 0x00, 0x00, 0x00, 
0x00, 0x00, 0x00, 0x00, 0x00, 0x00, 0x00, 0x00, 0x00, 0x00, 0x00, 0x00, 
0x00, 0x00, 0x00, 0x00, 0x00, 0x00, 0x00, 0x00, 0x00, 0x00, 0x00, 0x00, 
0x00, 0x00, 0x00, 0x00, 0x00, 0x00, 0x00, 0x00, 0x00, 0x00, 0x00, 0x00, 
0x00, 0x00, 0x00, 0x00, 0x00, 0x00, 0x00, 0x00, 0x00, 0x00, 0x00, 0x00, 
0x00, 0x00, 0x00, 0x00, 0x00, 0x00, 0x00, 0x00, 0x00, 0x00, 0x00, 0x00, 
0x00, 0x00, 0x00, 0x00, 0x00, 0x00, 0x00, 0x00, 0x00, 0x00, 0x00, 0x00, 
0x00, 0x00, 0x00, 0x00, 0x00, 0x00, 0x00, 0x00, 0x00, 0x00, 0x00, 0x00, 
0x00, 0x00, 0x00, 0x00, 0x00, 0x00, 0x00, 0x00, 0x10, 0x00, 0x00, 0x00, 
0x9e, 0x8a, 0xbc, 0x37, 0x49, 0xd6, 0x86, 0x37, 0x1f, 0x09, 0x91, 0x37, 
0xb2, 0xe6, 0x48, 0x38, 0x9d, 0x2c, 0x6b, 0x37, 0xc3, 0x00, 0x97, 0x37, 
0x3f, 0x90, 0x51, 0x37, 0xcc, 0x86, 0xac, 0x37, 0xf5, 0x0e, 0x60, 0x38, 
0x40, 0xb7, 0xd5, 0x36, 0x7d, 0x6d, 0x97, 0x37, 0xbe, 0x04, 0x7c, 0x37, 
0xec, 0x4e, 0x0b, 0x38, 0x08, 0xf2, 0xd1, 0x36, 0x39, 0x70, 0xa4, 0x37, 
0x7c, 0x34, 0xbb, 0x37, 0x12, 0x00, 0x00, 0x00, 0x74, 0x66, 0x6c, 0x2e, 
0x70, 0x73, 0x65, 0x75, 0x64, 0x6f, 0x5f, 0x71, 0x63, 0x6f, 0x6e, 0x73, 
0x74, 0x36, 0x00, 0x00, 0x01, 0x00, 0x00, 0x00, 0x10, 0x00, 0x00, 0x00, 
0xea, 0xf7, 0xff, 0xff, 0x00, 0x00, 0x00, 0x01, 0x14, 0x00, 0x00, 0x00, 
0xa8, 0x01, 0x00, 0x00, 0x08, 0x00, 0x00, 0x00, 0x00, 0x00, 0x00, 0x09, 
0xb4, 0x01, 0x00, 0x00, 0x64, 0xf7, 0xff, 0xff, 0x08, 0x00, 0x00, 0x00, 
0x0c, 0x01, 0x00, 0x00, 0x20, 0x00, 0x00, 0x00, 0x00, 0x00, 0x00, 0x00, 
0x00, 0x00, 0x00, 0x00, 0x00, 0x00, 0x00, 0x00, 0x00, 0x00, 0x00, 0x00, 
0x00, 0x00, 0x00, 0x00, 0x00, 0x00, 0x00, 0x00, 0x00, 0x00, 0x00, 0x00, 
0x00, 0x00, 0x00, 0x00, 0x00, 0x00, 0x00, 0x00, 0x00, 0x00, 0x00, 0x00, 
0x00, 0x00, 0x00, 0x00, 0x00, 0x00, 0x00, 0x00, 0x00, 0x00, 0x00, 0x00, 
0x00, 0x00, 0x00, 0x00, 0x00, 0x00, 0x00, 0x00, 0x00, 0x00, 0x00, 0x00, 
0x00, 0x00, 0x00, 0x00, 0x00, 0x00, 0x00, 0x00, 0x00, 0x00, 0x00, 0x00, 
0x00, 0x00, 0x00, 0x00, 0x00, 0x00, 0x00, 0x00, 0x00, 0x00, 0x00, 0x00, 
0x00, 0x00, 0x00, 0x00, 0x00, 0x00, 0x00, 0x00, 0x00, 0x00, 0x00, 0x00, 
0x00, 0x00, 0x00, 0x00, 0x00, 0x00, 0x00, 0x00, 0x00, 0x00, 0x00, 0x00, 
0x00, 0x00, 0x00, 0x00, 0x00, 0x00, 0x00, 0x00, 0x00, 0x00, 0x00, 0x00, 
0x00, 0x00, 0x00, 0x00, 0x00, 0x00, 0x00, 0x00, 0x00, 0x00, 0x00, 0x00, 
0x00, 0x00, 0x00, 0x00, 0x00, 0x00, 0x00, 0x00, 0x00, 0x00, 0x00, 0x00, 
0x00, 0x00, 0x00, 0x00, 0x00, 0x00, 0x00, 0x00, 0x00, 0x00, 0x00, 0x00, 
0x00, 0x00, 0x00, 0x00, 0x00, 0x00, 0x00, 0x00, 0x00, 0x00, 0x00, 0x00, 
0x00, 0x00, 0x00, 0x00, 0x00, 0x00, 0x00, 0x00, 0x00, 0x00, 0x00, 0x00, 
0x00, 0x00, 0x00, 0x00, 0x00, 0x00, 0x00, 0x00, 0x00, 0x00, 0x00, 0x00, 
0x00, 0x00, 0x00, 0x00, 0x00, 0x00, 0x00, 0x00, 0x00, 0x00, 0x00, 0x00, 
0x00, 0x00, 0x00, 0x00, 0x00, 0x00, 0x00, 0x00, 0x00, 0x00, 0x00, 0x00, 
0x00, 0x00, 0x00, 0x00, 0x00, 0x00, 0x00, 0x00, 0x00, 0x00, 0x00, 0x00, 
0x00, 0x00, 0x00, 0x00, 0x00, 0x00, 0x00, 0x00, 0x00, 0x00, 0x00, 0x00, 
0x00, 0x00, 0x00, 0x00, 0x00, 0x00, 0x00, 0x00, 0x00, 0x00, 0x00, 0x00, 
0x00, 0x00, 0x00, 0x00, 0x20, 0x00, 0x00, 0x00, 0x19, 0x02, 0x9a, 0x3c, 
0x9d, 0xb1, 0xba, 0x3a, 0xbc, 0x44, 0x21, 0x3c, 0x8a, 0x9f, 0xdc, 0x3a, 
0x57, 0x07, 0xbd, 0x3c, 0xde, 0xee, 0x8c, 0x3c, 0x56, 0xab, 0xc9, 0x3c, 
0x5e, 0x47, 0x82, 0x3c, 0x85, 0xc8, 0x2b, 0x3d, 0x53, 0x6c, 0x8c, 0x3c, 
0x51, 0xbb, 0x82, 0x3c, 0x52, 0xed, 0x86, 0x3c, 0x20, 0x52, 0x95, 0x3c, 
0x68, 0xec, 0x79, 0x3c, 0xd8, 0x20, 0x1f, 0x3d, 0x42, 0x19, 0x6e, 0x3c, 
0xce, 0x8a, 0xb1, 0x3c, 0x1b, 0x66, 0x09, 0x3d, 0x81, 0x6c, 0x0d, 0x3d, 
0x72, 0x90, 0xa8, 0x3c, 0xaf, 0xff, 0xb5, 0x3c, 0x8b, 0x49, 0xb5, 0x3c, 
0x19, 0xda, 0x74, 0x3c, 0x79, 0x2c, 0x0d, 0x3d, 0x15, 0x5a, 0x77, 0x3c, 
0x7b, 0x6a, 0x13, 0x3d, 0x5b, 0x51, 0xbc, 0x3c, 0xc9, 0x57, 0xea, 0x3c, 
0x59, 0x7a, 0x0a, 0x3d, 0x8c, 0xd7, 0x06, 0x3d, 0x29, 0x72, 0x31, 0x3d, 
0x63, 0x87, 0xb1, 0x3c, 0x12, 0x00, 0x00, 0x00, 0x74, 0x66, 0x6c, 0x2e, 
0x70, 0x73, 0x65, 0x75, 0x64, 0x6f, 0x5f, 0x71, 0x63, 0x6f, 0x6e, 0x73, 
0x74, 0x35, 0x00, 0x00, 0x04, 0x00, 0x00, 0x00, 0x20, 0x00, 0x00, 0x00, 
0x02, 0x00, 0x00, 0x00, 0x02, 0x00, 0x00, 0x00, 0x10, 0x00, 0x00, 0x00, 
0xca, 0xf9, 0xff, 0xff, 0x00, 0x00, 0x00, 0x01, 0x14, 0x00, 0x00, 0x00, 
0xa4, 0x01, 0x00, 0x00, 0x07, 0x00, 0x00, 0x00, 0x00, 0x00, 0x00, 0x02, 
0xb0, 0x01, 0x00, 0x00, 0x44, 0xf9, 0xff, 0xff, 0x08, 0x00, 0x00, 0x00, 
0x08, 0x01, 0x00, 0x00, 0x20, 0x00, 0x00, 0x00, 0x00, 0x00, 0x00, 0x00, 
0x00, 0x00, 0x00, 0x00, 0x00, 0x00, 0x00, 0x00, 0x00, 0x00, 0x00, 0x00, 
0x00, 0x00, 0x00, 0x00, 0x00, 0x00, 0x00, 0x00, 0x00, 0x00, 0x00, 0x00, 
0x00, 0x00, 0x00, 0x00, 0x00, 0x00, 0x00, 0x00, 0x00, 0x00, 0x00, 0x00, 
0x00, 0x00, 0x00, 0x00, 0x00, 0x00, 0x00, 0x00, 0x00, 0x00, 0x00, 0x00, 
0x00, 0x00, 0x00, 0x00, 0x00, 0x00, 0x00, 0x00, 0x00, 0x00, 0x00, 0x00, 
0x00, 0x00, 0x00, 0x00, 0x00, 0x00, 0x00, 0x00, 0x00, 0x00, 0x00, 0x00, 
0x00, 0x00, 0x00, 0x00, 0x00, 0x00, 0x00, 0x00, 0x00, 0x00, 0x00, 0x00, 
0x00, 0x00, 0x00, 0x00, 0x00, 0x00, 0x00, 0x00, 0x00, 0x00, 0x00, 0x00, 
0x00, 0x00, 0x00, 0x00, 0x00, 0x00, 0x00, 0x00, 0x00, 0x00, 0x00, 0x00, 
0x00, 0x00, 0x00, 0x00, 0x00, 0x00, 0x00, 0x00, 0x00, 0x00, 0x00, 0x00, 
0x00, 0x00, 0x00, 0x00, 0x00, 0x00, 0x00, 0x00, 0x00, 0x00, 0x00, 0x00, 
0x00, 0x00, 0x00, 0x00, 0x00, 0x00, 0x00, 0x00, 0x00, 0x00, 0x00, 0x00, 
0x00, 0x00, 0x00, 0x00, 0x00, 0x00, 0x00, 0x00, 0x00, 0x00, 0x00, 0x00, 
0x00, 0x00, 0x00, 0x00, 0x00, 0x00, 0x00, 0x00, 0x00, 0x00, 0x00, 0x00, 
0x00, 0x00, 0x00, 0x00, 0x00, 0x00, 0x00, 0x00, 0x00, 0x00, 0x00, 0x00, 
0x00, 0x00, 0x00, 0x00, 0x00, 0x00, 0x00, 0x00, 0x00, 0x00, 0x00, 0x00, 
0x00, 0x00, 0x00, 0x00, 0x00, 0x00, 0x00, 0x00, 0x00, 0x00, 0x00, 0x00, 
0x00, 0x00, 0x00, 0x00, 0x00, 0x00, 0x00, 0x00, 0x00, 0x00, 0x00, 0x00, 
0x00, 0x00, 0x00, 0x00, 0x00, 0x00, 0x00, 0x00, 0x00, 0x00, 0x00, 0x00, 
0x00, 0x00, 0x00, 0x00, 0x00, 0x00, 0x00, 0x00, 0x00, 0x00, 0x00, 0x00, 
0x00, 0x00, 0x00, 0x00, 0x00, 0x00, 0x00, 0x00, 0x00, 0x00, 0x00, 0x00, 
0x20, 0x00, 0x00, 0x00, 0x37, 0xb5, 0x08, 0x39, 0xc7, 0xb8, 0x25, 0x37, 
0x10, 0x27, 0x8f, 0x38, 0xfb, 0xd6, 0x43, 0x37, 0x5c, 0xcb, 0x27, 0x39, 
0xfc, 0x33, 0xfa, 0x38, 0xd8, 0x03, 0x33, 0x39, 0xc4, 0x49, 0xe7, 0x38, 
0x79, 0x7c, 0x98, 0x39, 0x3a, 0x4c, 0xf9, 0x38, 0x9d, 0x17, 0xe8, 0x38, 
0x54, 0x8a, 0xef, 0x38, 0x0a, 0x8c, 0x04, 0x39, 0x3f, 0xd9, 0xdd, 0x38, 
0xb8, 0x40, 0x8d, 0x39, 0x26, 0x5a, 0xd3, 0x38, 0x25, 0x99, 0x1d, 0x39, 
0xbb, 0xed, 0x73, 0x39, 0x08, 0x13, 0x7b, 0x39, 0xf8, 0xa0, 0x15, 0x39, 
0xdd, 0x8d, 0x21, 0x39, 0x2f, 0xec, 0x20, 0x39, 0xc8, 0x58, 0xd9, 0x38, 
0x5b, 0xa1, 0x7a, 0x39, 0xe0, 0x90, 0xdb, 0x38, 0x2d, 0xdb, 0x82, 0x39, 
0xd1, 0x29, 0x27, 0x39, 0xae, 0x04, 0x50, 0x39, 0x27, 0xd8, 0x75, 0x39, 
0xac, 0x63, 0x6f, 0x39, 0x45, 0x83, 0x9d, 0x39, 0x1c, 0x96, 0x1d, 0x39, 
0x12, 0x00, 0x00, 0x00, 0x74, 0x66, 0x6c, 0x2e, 0x70, 0x73, 0x65, 0x75, 
0x64, 0x6f, 0x5f, 0x71, 0x63, 0x6f, 0x6e, 0x73, 0x74, 0x34, 0x00, 0x00, 
0x01, 0x00, 0x00, 0x00, 0x20, 0x00, 0x00, 0x00, 0x9a, 0xfb, 0xff, 0xff, 
0x00, 0x00, 0x00, 0x01, 0x14, 0x00, 0x00, 0x00, 0xa8, 0x01, 0x00, 0x00, 
0x06, 0x00, 0x00, 0x00, 0x00, 0x00, 0x00, 0x09, 0xb4, 0x01, 0x00, 0x00, 
0x14, 0xfb, 0xff, 0xff, 0x08, 0x00, 0x00, 0x00, 0x0c, 0x01, 0x00, 0x00, 
0x20, 0x00, 0x00, 0x00, 0x00, 0x00, 0x00, 0x00, 0x00, 0x00, 0x00, 0x00, 
0x00, 0x00, 0x00, 0x00, 0x00, 0x00, 0x00, 0x00, 0x00, 0x00, 0x00, 0x00, 
0x00, 0x00, 0x00, 0x00, 0x00, 0x00, 0x00, 0x00, 0x00, 0x00, 0x00, 0x00, 
0x00, 0x00, 0x00, 0x00, 0x00, 0x00, 0x00, 0x00, 0x00, 0x00, 0x00, 0x00, 
0x00, 0x00, 0x00, 0x00, 0x00, 0x00, 0x00, 0x00, 0x00, 0x00, 0x00, 0x00, 
0x00, 0x00, 0x00, 0x00, 0x00, 0x00, 0x00, 0x00, 0x00, 0x00, 0x00, 0x00, 
0x00, 0x00, 0x00, 0x00, 0x00, 0x00, 0x00, 0x00, 0x00, 0x00, 0x00, 0x00, 
0x00, 0x00, 0x00, 0x00, 0x00, 0x00, 0x00, 0x00, 0x00, 0x00, 0x00, 0x00, 
0x00, 0x00, 0x00, 0x00, 0x00, 0x00, 0x00, 0x00, 0x00, 0x00, 0x00, 0x00, 
0x00, 0x00, 0x00, 0x00, 0x00, 0x00, 0x00, 0x00, 0x00, 0x00, 0x00, 0x00, 
0x00, 0x00, 0x00, 0x00, 0x00, 0x00, 0x00, 0x00, 0x00, 0x00, 0x00, 0x00, 
0x00, 0x00, 0x00, 0x00, 0x00, 0x00, 0x00, 0x00, 0x00, 0x00, 0x00, 0x00, 
0x00, 0x00, 0x00, 0x00, 0x00, 0x00, 0x00, 0x00, 0x00, 0x00, 0x00, 0x00, 
0x00, 0x00, 0x00, 0x00, 0x00, 0x00, 0x00, 0x00, 0x00, 0x00, 0x00, 0x00, 
0x00, 0x00, 0x00, 0x00, 0x00, 0x00, 0x00, 0x00, 0x00, 0x00, 0x00, 0x00, 
0x00, 0x00, 0x00, 0x00, 0x00, 0x00, 0x00, 0x00, 0x00, 0x00, 0x00, 0x00, 
0x00, 0x00, 0x00, 0x00, 0x00, 0x00, 0x00, 0x00, 0x00, 0x00, 0x00, 0x00, 
0x00, 0x00, 0x00, 0x00, 0x00, 0x00, 0x00, 0x00, 0x00, 0x00, 0x00, 0x00, 
0x00, 0x00, 0x00, 0x00, 0x00, 0x00, 0x00, 0x00, 0x00, 0x00, 0x00, 0x00, 
0x00, 0x00, 0x00, 0x00, 0x00, 0x00, 0x00, 0x00, 0x00, 0x00, 0x00, 0x00, 
0x00, 0x00, 0x00, 0x00, 0x00, 0x00, 0x00, 0x00, 0x00, 0x00, 0x00, 0x00, 
0x00, 0x00, 0x00, 0x00, 0x00, 0x00, 0x00, 0x00, 0x00, 0x00, 0x00, 0x00, 
0x20, 0x00, 0x00, 0x00, 0x4c, 0x1b, 0x1d, 0x3b, 0xb9, 0xae, 0xa0, 0x3c, 
0x6b, 0xde, 0x83, 0x3c, 0xc3, 0x75, 0x17, 0x3b, 0x2d, 0x33, 0x3f, 0x3b, 
0xce, 0x1e, 0x17, 0x3b, 0x66, 0xb4, 0x1e, 0x3b, 0x10, 0xc8, 0xac, 0x3c, 
0x9a, 0x23, 0x82, 0x3c, 0xed, 0x4d, 0x47, 0x3c, 0xb6, 0x7a, 0x4b, 0x3c, 
0x82, 0x38, 0x99, 0x3c, 0x00, 0x7f, 0xe0, 0x3b, 0x16, 0xb6, 0x88, 0x3c, 
0xf5, 0xbc, 0x3e, 0x3c, 0x16, 0x7c, 0x5c, 0x3c, 0xf4, 0xcb, 0x29, 0x3b, 
0x9f, 0xa3, 0x8c, 0x3c, 0xc6, 0x48, 0x6a, 0x3c, 0x78, 0xc1, 0x33, 0x3b, 
0x0d, 0xaf, 0x18, 0x3b, 0xa6, 0xd4, 0xb3, 0x3c, 0x47, 0x3b, 0x24, 0x3b, 
0x3d, 0xa9, 0x16, 0x3b, 0xf5, 0x85, 0x25, 0x3b, 0xb0, 0xa7, 0x94, 0x3c, 
0x7d, 0x17, 0x71, 0x3c, 0xe1, 0x66, 0x26, 0x3b, 0xaa, 0x2d, 0x19, 0x3b, 
0x72, 0x24, 0x56, 0x3b, 0x89, 0x79, 0x9e, 0x3c, 0x20, 0x69, 0x9e, 0x3c, 
0x12, 0x00, 0x00, 0x00, 0x74, 0x66, 0x6c, 0x2e, 0x70, 0x73, 0x65, 0x75, 
0x64, 0x6f, 0x5f, 0x71, 0x63, 0x6f, 0x6e, 0x73, 0x74, 0x33, 0x00, 0x00, 
0x02, 0x00, 0x00, 0x00, 0x20, 0x00, 0x00, 0x00, 0x20, 0x00, 0x00, 0x00, 
0x72, 0xfd, 0xff, 0xff, 0x00, 0x00, 0x00, 0x01, 0x14, 0x00, 0x00, 0x00, 
0xa4, 0x01, 0x00, 0x00, 0x05, 0x00, 0x00, 0x00, 0x00, 0x00, 0x00, 0x02, 
0xb0, 0x01, 0x00, 0x00, 0xec, 0xfc, 0xff, 0xff, 0x08, 0x00, 0x00, 0x00, 
0x08, 0x01, 0x00, 0x00, 0x20, 0x00, 0x00, 0x00, 0x00, 0x00, 0x00, 0x00, 
0x00, 0x00, 0x00, 0x00, 0x00, 0x00, 0x00, 0x00, 0x00, 0x00, 0x00, 0x00, 
0x00, 0x00, 0x00, 0x00, 0x00, 0x00, 0x00, 0x00, 0x00, 0x00, 0x00, 0x00, 
0x00, 0x00, 0x00, 0x00, 0x00, 0x00, 0x00, 0x00, 0x00, 0x00, 0x00, 0x00, 
0x00, 0x00, 0x00, 0x00, 0x00, 0x00, 0x00, 0x00, 0x00, 0x00, 0x00, 0x00, 
0x00, 0x00, 0x00, 0x00, 0x00, 0x00, 0x00, 0x00, 0x00, 0x00, 0x00, 0x00, 
0x00, 0x00, 0x00, 0x00, 0x00, 0x00, 0x00, 0x00, 0x00, 0x00, 0x00, 0x00, 
0x00, 0x00, 0x00, 0x00, 0x00, 0x00, 0x00, 0x00, 0x00, 0x00, 0x00, 0x00, 
0x00, 0x00, 0x00, 0x00, 0x00, 0x00, 0x00, 0x00, 0x00, 0x00, 0x00, 0x00, 
0x00, 0x00, 0x00, 0x00, 0x00, 0x00, 0x00, 0x00, 0x00, 0x00, 0x00, 0x00, 
0x00, 0x00, 0x00, 0x00, 0x00, 0x00, 0x00, 0x00, 0x00, 0x00, 0x00, 0x00, 
0x00, 0x00, 0x00, 0x00, 0x00, 0x00, 0x00, 0x00, 0x00, 0x00, 0x00, 0x00, 
0x00, 0x00, 0x00, 0x00, 0x00, 0x00, 0x00, 0x00, 0x00, 0x00, 0x00, 0x00, 
0x00, 0x00, 0x00, 0x00, 0x00, 0x00, 0x00, 0x00, 0x00, 0x00, 0x00, 0x00, 
0x00, 0x00, 0x00, 0x00, 0x00, 0x00, 0x00, 0x00, 0x00, 0x00, 0x00, 0x00, 
0x00, 0x00, 0x00, 0x00, 0x00, 0x00, 0x00, 0x00, 0x00, 0x00, 0x00, 0x00, 
0x00, 0x00, 0x00, 0x00, 0x00, 0x00, 0x00, 0x00, 0x00, 0x00, 0x00, 0x00, 
0x00, 0x00, 0x00, 0x00, 0x00, 0x00, 0x00, 0x00, 0x00, 0x00, 0x00, 0x00, 
0x00, 0x00, 0x00, 0x00, 0x00, 0x00, 0x00, 0x00, 0x00, 0x00, 0x00, 0x00, 
0x00, 0x00, 0x00, 0x00, 0x00, 0x00, 0x00, 0x00, 0x00, 0x00, 0x00, 0x00, 
0x00, 0x00, 0x00, 0x00, 0x00, 0x00, 0x00, 0x00, 0x00, 0x00, 0x00, 0x00, 
0x00, 0x00, 0x00, 0x00, 0x00, 0x00, 0x00, 0x00, 0x00, 0x00, 0x00, 0x00, 
0x20, 0x00, 0x00, 0x00, 0x83, 0xae, 0x95, 0x36, 0xad, 0x16, 0x19, 0x38, 
0xf4, 0x45, 0xfb, 0x37, 0x4b, 0x4d, 0x90, 0x36, 0xe8, 0x29, 0xb6, 0x36, 
0x72, 0xfa, 0x8f, 0x36, 0x47, 0x34, 0x97, 0x36, 0xa2, 0x9d, 0x24, 0x38, 
0x2d, 0xfa, 0xf7, 0x37, 0x9a, 0xe2, 0xbd, 0x37, 0xe0, 0xdc, 0xc1, 0x37, 
0xbd, 0xfa, 0x11, 0x38, 0xe4, 0xe2, 0x55, 0x37, 0x0f, 0x40, 0x02, 0x38, 
0x46, 0xb9, 0xb5, 0x37, 0x82, 0x10, 0xd2, 0x37, 0xa3, 0xc5, 0xa1, 0x36, 
0x12, 0xfe, 0x05, 0x38, 0x3d, 0x36, 0xdf, 0x37, 0xa9, 0x42, 0xab, 0x36, 
0xc7, 0x77, 0x91, 0x36, 0xef, 0x54, 0x2b, 0x38, 0x4a, 0x78, 0x9c, 0x36, 
0x70, 0x8a, 0x8f, 0x36, 0x57, 0xb3, 0x9d, 0x36, 0x28, 0xa1, 0x0d, 0x38, 
0x98, 0xb2, 0xe5, 0x37, 0xa2, 0x89, 0x9e, 0x36, 0x68, 0xf0, 0x91, 0x36, 
0x9a, 0x05, 0xcc, 0x36, 0x33, 0xfc, 0x16, 0x38, 0x90, 0xec, 0x16, 0x38, 
0x12, 0x00, 0x00, 0x00, 0x74, 0x66, 0x6c, 0x2e, 0x70, 0x73, 0x65, 0x75, 
0x64, 0x6f, 0x5f, 0x71, 0x63, 0x6f, 0x6e, 0x73, 0x74, 0x32, 0x00, 0x00, 
0x01, 0x00, 0x00, 0x00, 0x20, 0x00, 0x00, 0x00, 0x42, 0xff, 0xff, 0xff, 
0x00, 0x00, 0x00, 0x01, 0x14, 0x00, 0x00, 0x00, 0x30, 0x00, 0x00, 0x00, 
0x04, 0x00, 0x00, 0x00, 0x00, 0x00, 0x00, 0x09, 0x3c, 0x00, 0x00, 0x00, 
0xbc, 0xfe, 0xff, 0xff, 0x08, 0x00, 0x00, 0x00, 0x10, 0x00, 0x00, 0x00, 
0x01, 0x00, 0x00, 0x00, 0x00, 0x00, 0x00, 0x00, 0x00, 0x00, 0x00, 0x00, 
0x01, 0x00, 0x00, 0x00, 0x67, 0x6b, 0x17, 0x3d, 0x12, 0x00, 0x00, 0x00, 
0x74, 0x66, 0x6c, 0x2e, 0x70, 0x73, 0x65, 0x75, 0x64, 0x6f, 0x5f, 0x71, 
0x63, 0x6f, 0x6e, 0x73, 0x74, 0x31, 0x00, 0x00, 0x02, 0x00, 0x00, 0x00, 
0x01, 0x00, 0x00, 0x00, 0x20, 0x00, 0x00, 0x00, 0xa2, 0xff, 0xff, 0xff, 
0x00, 0x00, 0x00, 0x01, 0x14, 0x00, 0x00, 0x00, 0x30, 0x00, 0x00, 0x00, 
0x03, 0x00, 0x00, 0x00, 0x00, 0x00, 0x00, 0x02, 0x3c, 0x00, 0x00, 0x00, 
0x1c, 0xff, 0xff, 0xff, 0x08, 0x00, 0x00, 0x00, 0x10, 0x00, 0x00, 0x00, 
0x01, 0x00, 0x00, 0x00, 0x00, 0x00, 0x00, 0x00, 0x00, 0x00, 0x00, 0x00, 
0x01, 0x00, 0x00, 0x00, 0xb7, 0xbe, 0x75, 0x39, 0x11, 0x00, 0x00, 0x00, 
0x74, 0x66, 0x6c, 0x2e, 0x70, 0x73, 0x65, 0x75, 0x64, 0x6f, 0x5f, 0x71, 
0x63, 0x6f, 0x6e, 0x73, 0x74, 0x00, 0x00, 0x00, 0x01, 0x00, 0x00, 0x00, 
0x01, 0x00, 0x00, 0x00, 0x00, 0x00, 0x16, 0x00, 0x1c, 0x00, 0x18, 0x00, 
0x17, 0x00, 0x10, 0x00, 0x0c, 0x00, 0x08, 0x00, 0x00, 0x00, 0x00, 0x00, 
0x00, 0x00, 0x07, 0x00, 0x16, 0x00, 0x00, 0x00, 0x00, 0x00, 0x00, 0x01, 
0x18, 0x00, 0x00, 0x00, 0x18, 0x00, 0x00, 0x00, 0x02, 0x00, 0x00, 0x00, 
0x00, 0x00, 0x00, 0x02, 0x20, 0x00, 0x00, 0x00, 0x04, 0x00, 0x04, 0x00, 
0x04, 0x00, 0x00, 0x00, 0x0e, 0x00, 0x00, 0x00, 0x61, 0x72, 0x69, 0x74, 
0x68, 0x2e, 0x63, 0x6f, 0x6e, 0x73, 0x74, 0x61, 0x6e, 0x74, 0x00, 0x00, 
0x01, 0x00, 0x00, 0x00, 0x02, 0x00, 0x00, 0x00, 0x00, 0x00, 0x16, 0x00, 
0x20, 0x00, 0x1c, 0x00, 0x1b, 0x00, 0x14, 0x00, 0x10, 0x00, 0x0c, 0x00, 
0x00, 0x00, 0x00, 0x00, 0x08, 0x00, 0x07, 0x00, 0x16, 0x00, 0x00, 0x00, 
0x00, 0x00, 0x00, 0x01, 0x18, 0x00, 0x00, 0x00, 0x34, 0x00, 0x00, 0x00, 
0x50, 0x00, 0x00, 0x00, 0x01, 0x00, 0x00, 0x00, 0x00, 0x00, 0x00, 0x03, 
0x68, 0x00, 0x00, 0x00, 0x04, 0x00, 0x00, 0x00, 0xff, 0xff, 0xff, 0xff, 
0x60, 0x00, 0x00, 0x00, 0x60, 0x00, 0x00, 0x00, 0x01, 0x00, 0x00, 0x00, 
0x0c, 0x00, 0x0c, 0x00, 0x00, 0x00, 0x00, 0x00, 0x08, 0x00, 0x04, 0x00, 
0x0c, 0x00, 0x00, 0x00, 0x08, 0x00, 0x00, 0x00, 0x10, 0x00, 0x00, 0x00, 
0x01, 0x00, 0x00, 0x00, 0x00, 0x00, 0x00, 0x00, 0x00, 0x00, 0x00, 0x00, 
0x01, 0x00, 0x00, 0x00, 0x81, 0x80, 0x80, 0x3b, 0x1e, 0x00, 0x00, 0x00, 
0x73, 0x65, 0x72, 0x76, 0x69, 0x6e, 0x67, 0x5f, 0x64, 0x65, 0x66, 0x61, 
0x75, 0x6c, 0x74, 0x5f, 0x6b, 0x65, 0x72, 0x61, 0x73, 0x5f, 0x74, 0x65, 
0x6e, 0x73, 0x6f, 0x72, 0x3a, 0x30, 0x00, 0x00, 0x04, 0x00, 0x00, 0x00, 
0x01, 0x00, 0x00, 0x00, 0x60, 0x00, 0x00, 0x00, 0x60, 0x00, 0x00, 0x00, 
0x01, 0x00, 0x00, 0x00, 0x06, 0x00, 0x00, 0x00, 0x80, 0x00, 0x00, 0x00, 
0x60, 0x00, 0x00, 0x00, 0x40, 0x00, 0x00, 0x00, 0x2c, 0x00, 0x00, 0x00, 
0x18, 0x00, 0x00, 0x00, 0x04, 0x00, 0x00, 0x00, 0xc0, 0xff, 0xff, 0xff, 
0x0e, 0x00, 0x00, 0x00, 0x02, 0x00, 0x00, 0x00, 0x00, 0x00, 0x00, 0x0e, 
0xd0, 0xff, 0xff, 0xff, 0x09, 0x00, 0x00, 0x00, 0x04, 0x00, 0x00, 0x00, 
0x00, 0x00, 0x00, 0x09, 0xe0, 0xff, 0xff, 0xff, 0x28, 0x00, 0x00, 0x00, 
0x02, 0x00, 0x00, 0x00, 0x00, 0x00, 0x00, 0x28, 0xf0, 0xff, 0xff, 0xff, 
0x11, 0x00, 0x00, 0x00, 0x02, 0x00, 0x00, 0x00, 0x00, 0x00, 0x00, 0x11, 
0x0c, 0x00, 0x10, 0x00, 0x0f, 0x00, 0x00, 0x00, 0x08, 0x00, 0x04, 0x00, 
0x0c, 0x00, 0x00, 0x00, 0x03, 0x00, 0x00, 0x00, 0x03, 0x00, 0x00, 0x00, 
0x00, 0x00, 0x00, 0x03, 0x0c, 0x00, 0x0c, 0x00, 0x0b, 0x00, 0x00, 0x00, 
0x00, 0x00, 0x04, 0x00, 0x0c, 0x00, 0x00, 0x00, 0x72, 0x00, 0x00, 0x00, 
0x00, 0x00, 0x00, 0x72, 
};
extern "C" const unsigned int modelLen = 9520;
